#include "nn_header.h"
#include "arm_math.h"
#include "nrf_log.h"
#include "nrf_log_ctrl.h"
#include "nrf_log_default_backends.h"

// Autoencoder
const uint32_t autoencoder_dense_weight[24 * 32] = {0x3cd0cafe, 0xbd9afb7e, 0x3dd9c76c, 0x3d1d8c97, 0xbe464769, 0x3d9a1644, 0x3e2de456, 0xbe35a3f2, 0xbfe6cc76, 0xc0a69910, 0xc0717d5a, 0xbfe8efb4, 0x3e77e92e, 0x3d6e2e74, 0xbcf32d83, 0x3e134a21, 0x3c8cf43d, 0xbcdf7e86, 0xbe2a258d, 0x3da56626, 0x3e22978b, 0x3b4fb40e, 0xbd83f9a2, 0xbe1e81ac, 0x3e10523f, 0x3d15b08a, 0xbe372458, 0xbbb4df45, 0x3e851092, 0x3e9a0273, 0x3e789316, 0x3d918b6e, 0xbc0f2efa, 0xbe21d0d7, 0xbd02b722, 0x3e00d3ac, 0x3d33613d, 0xbdb57446, 0xbe594164, 0xbe71dd33, 0xbe72b3b5, 0x3df2d2ce, 0x3d6b26ab, 0x3ea352b6, 0x3ed1b1bc, 0x3e4ffe6b, 0x3df54a54, 0xbec5d519, 0x3dc7539c, 0xbd325aa0, 0xbdf31006, 0xbba00eb3, 0x3da22904, 0x3cd68907, 0xbdf08281, 0x3e2923de, 0x3e327f42, 0xbe8aaa4d, 0xbfcfce4d, 0xc093120d, 0xc0776dce, 0xc0060105, 0xbed52e6e, 0x3e80116e, 0x3dc8b231, 0xbd27a9ea, 0x3d2ff9d4, 0xbcf7ea3a, 0xbe5daa8f, 0xbcb7c066, 0x3e6f51fe, 0xbd16cec6, 0x3cc745fa, 0xbb677789, 0xbcbb18c0, 0x3d4fbf2b, 0x3e3c5ae5, 0xbdcfd126, 0xbf82f5d6, 0xbf82b202, 0xbf0dfdbd, 0x3e4d870e, 0x3da3525f, 0xbcee7543, 0xbd4e48f8, 0x3cc47948, 0xbc33061d, 0xbc527f82, 0x3ccd156f, 0xbd326929, 0x3da06116, 0x3b008030, 0xbce9d821, 0x3bbee556, 0x3c4c3421, 0x3d1ab185, 0xbe6c8bed, 0xbd341a85, 0xbd99abec, 0xbe0d5df6, 0x3ebc34ab, 0x3e97828e, 0xbcb0c23e, 0x3e686b99, 0x3e642f20, 0x3f05b9c2, 0x3ee60452, 0x3e5d352a, 0x3dea4999, 0x3bcb1b76, 0x3df9271e, 0xbd5a2fdb, 0x3c8fc0d4, 0xbe1ce7d6, 0x3e2bb427, 0x3af63b77, 0xbdd479d4, 0xbe42f4cf, 0xbea5ede0, 0xba7efa12, 0xbd0e0790, 0xbdda9d77, 0xbe2f165e, 0x3dffb766, 0x3e14a1a6, 0x3da42dd1, 0xbdac6f51, 0xbd8a5cec, 0x3dc88c17, 0x3e870cc0, 0x3e5c6fe8, 0xbda5bc8d, 0xbebbe88f, 0xbeb07711, 0xbe365cbc, 0x3f0832e9, 0x3f5117ad, 0x3f263d58, 0xbe15ef5e, 0xbec3d4b5, 0xbed52b96, 0xbd8bc2d3, 0xbd175f7d, 0xbd6cc881, 0xbd8fa7ef, 0xbd8a789d, 0xbdaa0134, 0xbd652796, 0x3dd089c2, 0x3d706dbb, 0xbe21ebf2, 0xbe73f396, 0x3d81554e, 0x3e3e69bd, 0xbdca529f, 0xbec4ac42, 0xbe91f18a, 0x3df25106, 0x3e7bcacf, 0xbcf8d255, 0xbeb5122d, 0xbebca25a, 0xbea9afa2, 0xbe981b7c, 0xbe554d80, 0xbe2ac242, 0xbb88b962, 0xbcc9d93d, 0xbd9d1269, 0x3e786001, 0x3ea4e612, 0x3e6de854, 0x3e322c7a, 0xbdaa2695, 0xbe6172f0, 0xbe8a433f, 0xbdf4cad1, 0x3ccaafb3, 0xbd02fb10, 0xbe16b31c, 0xbdef6258, 0x3d762bce, 0x3e2e84b1, 0x3c85e5ab, 0x3d8eb2d1, 0x3e19274d, 0x3e9358a1, 0x3e8714c4, 0x3e347dc8, 0xbd565889, 0xbe73b41b, 0xbe8448e5, 0x3c257c9d, 0x3d4950a6, 0xbce5b8b7, 0xbcd46f26, 0x3b78897d, 0x3be1009b, 0xbb9544ed, 0xbcbe6563, 0xba5f6cb0, 0x3d3511cf, 0xbd88770f, 0xbd56fd20, 0x3e1a042d, 0x3e6675f0, 0xbf04051d, 0xc0022f07, 0xc0987ebd, 0xc08da702, 0xc0125935, 0xbef82230, 0x3e14b4bb, 0x3e5021d0, 0xbe05a263, 0xbd36fab2, 0x3e232cba, 0xbe8a1e14, 0xbf79fa12, 0xbf503b93, 0xbded4fec, 0x3e45af27, 0x3d504aa8, 0xbe3163ff, 0x3d5fd074, 0x3c07861c, 0xbce77985, 0xbcbdeb2b, 0x3d9a51e9, 0x3ca0ff87, 0xbdb8564a, 0xbd1c2157, 0x3d1fac48, 0x3da5c2ba, 0xbb18fb73, 0xbcc1d20c, 0x3d499490, 0x3c39a9c1, 0xbccfc7a9, 0xbd108f5e, 0xbe8f2937, 0xbe926151, 0x3dcfd136, 0xbd1e02c2, 0xbe69ba02, 0xbe3656d5, 0x3cec63e2, 0xbe00d4e3, 0xbc7a53d2, 0xbc5d6ed6, 0x39ec8cb4, 0xbd171a16, 0x3d8752ff, 0xbdb6d73b, 0xbdba5f48, 0x3d84e9e1, 0x3ef17dd7, 0x3ebcf340, 0x3ec78bbe, 0x3d865f6c, 0x3db82141, 0x3c06424a, 0x3b5a2a64, 0x3dfea7d4, 0xbe5ad727, 0x3de7451b, 0xbd931d58, 0xbd4a085e, 0x3d35eb89, 0xbe9a869e, 0xbe8b2be7, 0x3df213ba, 0xbcda29eb, 0x3d434bcf, 0x3df2dbeb, 0xbd0d84d1, 0xbec4da87, 0xbe71b9a6, 0xbd055425, 0x3d630288, 0x3d614708, 0x3dc73c13, 0xbe5e13c6, 0xbdfd887f, 0xbd158d89, 0x3eea5add, 0x3f009a4f, 0x3ec6c59b, 0xbe501e9c, 0xbe55b07d, 0x3cb1af72, 0x3e522c38, 0x3e618153, 0x3e462a5c, 0xbe6b84f1, 0xbef4c4cc, 0xbe0d5450, 0x3e6a7269, 0x3ee034e1, 0x3eb5d56a, 0x3e813d4e, 0xbda33528, 0xbe56e05b, 0xbe2f300e, 0xbe0eb924, 0xbdb78c81, 0x3d5c8a79, 0x3d7b1f4a, 0x3deafd14, 0x3e1bde21, 0x3e20bbbc, 0x3e532f96, 0x3e295865, 0xbd92bdc4, 0x3d45b195, 0xbb8291e1, 0x3e8c1f9f, 0x3e91f58b, 0x3ca31d04, 0x3d05dc2e, 0x3ef4b37a, 0x3f3bc053, 0x3e98bf50, 0xbea88200, 0xbea5ec53, 0xbd40487b, 0x3debce6f, 0x3d12b08a, 0x3e06be1f, 0xbcd9e7e9, 0x3d9adda1, 0xbe30cfbf, 0x3d4e4d4e, 0x3e98d640, 0x3f224df4, 0x3f2a19ba, 0xbd8b629c, 0x3e349b7e, 0xbe917bed, 0x3e649d17, 0x3e928516, 0xbffdff2a, 0xc0c0a473, 0xc114646c, 0xc097f1b4, 0xbf19d275, 0x3f433368, 0xbe079338, 0xbe4b14b4, 0x3e362edf, 0xbc0a6532, 0xbdacbb95, 0x3e0a53e8, 0x3cb3e717, 0xbe1f13d3, 0x3e16e7b4, 0x3da2cee3, 0xbe839bad, 0xbd405fa4, 0x3defd588, 0xc19216f3, 0xc1109930, 0xbff98195, 0x3f25bfb7, 0x3e84c61b, 0xbe7dcae9, 0x3dae52ec, 0x3e7188ee, 0xbe4b4ca5, 0xbe3a1190, 0x3ea1d6a2, 0x3d10b459, 0xbe19e445, 0xbe131cd2, 0x3b5e292a, 0x3e40efe0, 0xbda6524b, 0xbe59eb1a, 0x3c3c34b5, 0x3b80b838, 0xbe17d379, 0x3e4a9652, 0xbe748433, 0x3e827754, 0xbc01caf3, 0x3b5a071f, 0xbc5bd95b, 0x3d61e6a6, 0xbd87cfe7, 0x3cf3aa8c, 0x3d5d4e41, 0xbd0ff100, 0x3d2155f4, 0x3be639a1, 0x3d881675, 0x3d002fc2, 0xbd390ccd, 0xb9ee4c4c, 0x3d61af06, 0x3b7588ee, 0x3dcab129, 0xbe4aaf90, 0xbf6449a5, 0xbfa69d6f, 0xbf8a916f, 0xbe98819f, 0x3dd2c620, 0x3e21332a, 0x3ea9fb12, 0xbf0bfc7b, 0xbfeeb8d7, 0xc00566f5, 0xbfac2285, 0xbee66434, 0xbe426d14, 0x3ed4ff10, 0xbcdf36bc, 0xbdde4d9d, 0xbd7f196a, 0xbd95db78, 0x3cc36cfc, 0x3de20322, 0x3d337a67, 0xbd7eb51f, 0xbd1f2746, 0xbe1cd83a, 0x3db8b436, 0x3cccc14d, 0x3d967fa5, 0xbc476479, 0xbcc595b9, 0xbd85018a, 0xc0bb2367, 0xc1005233, 0xc1443fd8, 0xc126d686, 0xc0a6ca7c, 0xbf278824, 0x3ef817d3, 0xbe94c140, 0x3bc9b4ec, 0x3ec82ef6, 0xbe01e30e, 0xbe4a61fa, 0x3e2093a3, 0x3dcf6397, 0xbe9dfc45, 0xbd633587, 0x3e043506, 0xbd836559, 0x3d9d6792, 0xbd870c86, 0xbd7959dc, 0xbe1cc19e, 0xbcb3d4a0, 0x3ea3e23b, 0x3d8c1e36, 0xbd5622d5, 0x3c1f7324, 0xbd1ca694, 0xbeeeaf28, 0xbed8ecbc, 0xbe3d27fc, 0x3db71a81, 0xbd4d3581, 0xba7aaed2, 0xbce1e948, 0x3d5e5853, 0x3d9166ce, 0xbd2c322d, 0xbd290b10, 0x3bf28d19, 0x3ce51d6f, 0xbd45592f, 0x3d74ec29, 0xbd99aae7, 0x3ce12fa6, 0x3ca9e116, 0x3d0bb80e, 0xbc92e011, 0xbdc12e14, 0x3e20adfa, 0x3e8a57a3, 0xbed58160, 0xbfded8ca, 0xc0009cde, 0xbf09e2d0, 0x3db9de57, 0x3d4abc6f, 0x3cf3bd88, 0x3d50809a, 0x3c85f848, 0xbdccd4ef, 0x3d3c580f, 0xbbde2767, 0xbb0fc959, 0xbc84be39, 0x3d9049d6, 0xbda5d8e8, 0x3cdf8b1c, 0x3c21c75c, 0x3cf42bdc, 0xbc573dbd, 0x3c11aeb3, 0xbda8cf21, 0xbe2b1f30, 0xbd0f9fd5, 0x3da99c13, 0x3de69a05, 0x3e66d766, 0x3dc13e03, 0xbdc7c9cc, 0xbdee0468, 0xbdd50884, 0xbd4a987b, 0x3db9d008, 0x3e9911d5, 0x3ed4f0ba, 0x3ef70f9b, 0x3ed9ed68, 0x3eb747a6, 0x3e669894, 0x3d2f8367, 0xbe2f5ba3, 0xbd14f8ff, 0x3d90c977, 0x3e67e290, 0x3e83f959, 0xc0011256, 0xbf86bcfc, 0xbd2fdea3, 0x3e77ee8b, 0xbdce9170, 0x3de00db3, 0x3c2dd7d2, 0xbd752a97, 0xbdb3ae41, 0x3d76d4e5, 0xbd9878f6, 0x3d861358, 0xbd6a6fc4, 0xbd5f5be0, 0x3d81d728, 0x3b9eb9fd, 0x3d0ca669, 0x3c4a56e2, 0xbc2ac52f, 0xbd742fdb, 0x3d29c852, 0x3c2e2341, 0x3d552366, 0xbdbea00e, 0x3e633d28, 0x3d3b308b, 0x3e41b3ce, 0x3ca722ae, 0x3c944382, 0x3d81ed7f, 0x3e18539e, 0xbd7008a9, 0xbe8d48a7, 0xbe964af9, 0x3da4f404, 0x3e935612, 0x3e98fffa, 0xbdf4f15d, 0xbe6f2be4, 0xbda9b674, 0x3e9528f2, 0xbc9a9130, 0xbe32dbc8, 0xbf0caa89, 0xbeb2aac0, 0xbdc97777, 0x3dab2560, 0x3ec2bb0f, 0x3d75d2c8, 0x3dcac1df, 0x3dc09619, 0x3c28e4dc, 0xbe4b5a7b, 0xbe92f2d5, 0xbd2c9143, 0x3e8bfd62, 0x3f0f3c0c, 0x3f2124ec, 0x3f1893fd, 0x3ec2cb67, 0x3e3d908e, 0x3da215f1, 0x3c9c4336, 0xbd72c60d, 0xbdd092a1, 0x3d033a52, 0xbd927e68, 0xbc2cef49, 0x3d427eb9, 0x3d44770f, 0x3d0e9159, 0xbe1b79ea, 0xbe5e4012, 0x3f0fd4a7, 0xbe40db85, 0xc0345857, 0xc13cacac, 0xc15b7942, 0xc0c3ddf7, 0xbf148570, 0x3f487c56, 0xbe994a4b, 0xbe283dd6, 0x3ea4ea69, 0xbdb2983e, 0xbe605916, 0x3e65dfbd, 0x3e337f74, 0xbda55bd1, 0xbe072aac, 0xbd97c376, 0xbcecf799, 0x3d974452, 0xbdeccb81, 0x3ac1e3e5, 0xbcfd3a83, 0xbcb4a2cb, 0xbc8d351e, 0xbb7d986a, 0x3d65b97e, 0x3d11be31, 0x3c00b13b, 0xbd88e48e, 0x3a76c24f, 0x3daa9634, 0xbbf28846, 0xbe45bd98, 0xbf4a05ab, 0xbf29dec6, 0xbe9c9291, 0x3dc46b73, 0xbbafdb96, 0x3c2b6fb1, 0x3d537cf3, 0x3d402118, 0xbd82bc50, 0xbdddfada, 0x3c70f6bb, 0x3c8d30e1, 0x3cca0a45, 0x3dbe5411, 0xbe0e5f35, 0x3d40ff74, 0x3d9adefc, 0xbd9102e5, 0xbd30ca68, 0x3d85cefa, 0xbb5e2461, 0xbd571fe5, 0x3cee0176, 0x3eab6a55, 0xbe2da2f7, 0xbfc991ee, 0xc06a1ce6, 0xc0a735e2, 0xc02a776c, 0xbf607e22, 0x3e0f675c, 0x3e248d74, 0xbdb80982, 0xbd55212d, 0x3e0429c5, 0x3dd0d42c, 0xbe6b3747, 0xbe0825d8, 0xbfcc6e15, 0xc08250b8, 0xc03e846a, 0xbf370cf7, 0x3ebe135b, 0x3e46a88c, 0xbe809e5f, 0x3d883ee3, 0x3e25a3b9, 0xbb84f2c7, 0xbd4c67d4, 0x3d36f81b, 0xbb9059c3, 0x3b9eaa5c, 0x3c9879eb, 0xbcd63e11, 0x3d8ce82c, 0x3c34cd24, 0x3cae34de, 0xbd97c768, 0xbcc7bd43, 0xbc3f53ea, 0x3e0ef28d, 0xbf0a5dce, 0xbe083266, 0x3ec7ee9c, 0x3ec8dd8b, 0xbe173210, 0xbe24d43a, 0x3e2a8278, 0x3f12feae, 0x3e5dfcd8, 0xbdd90240, 0xbe20d063, 0x3b4da1c8, 0x3d8f8231, 0x3cd54f03, 0xbd5c408f, 0x3c9f6e8c, 0xbe89f049, 0xbe8362c9, 0xbe36a28b, 0xbd70120e, 0xbdab6589, 0x3d4a79d8, 0x3d97adfb, 0x3e3dd620, 0x3da02024, 0xbd6fb42b, 0x3d267805, 0x3db09d21, 0xbd818f41, 0xbd264205, 0x3dae4449, 0xbcc5e50a, 0xbd7bc6b2, 0x3c45c958, 0x3d7b8b2f, 0x3e68ba10, 0xbe7ecf48, 0xbf9f1849, 0xbf7acc89, 0xbf53c2bd, 0xbd925fa7, 0x3e9b2eb1, 0x3c0e2435, 0x3c60ae9e, 0x3db6c809, 0xbe0cde9d, 0xbdd21c37, 0x3dc29d57, 0xbc3e692d, 0x3d8fe3e9, 0xbd74a4b1, 0xbca7334e, 0x3b80b16a, 0x3d06ea83, 0xbd0fe1c2, 0x3a0d8823, 0xbc06b464, 0x3d0d124f, 0xbc450f9d, 0xbca8562b, 0xbd0b31ca, 0x3cbf4ee7, 0xbcc5b394, 0xbcfe304f, 0x3d05a80e, 0x3df488b7, 0x3e244960, 0xbdb5e43b, 0xbf19aeb3, 0xbfa2fe7a, 0xc0168b6e, 0xbfeba79a};
const union data autoencoder_dense_weight_data = {.intval = (uint32_t *) autoencoder_dense_weight};
const uint32_t autoencoder_dense_bias[1 * 32] = {0x3df38d26, 0x3e092378, 0x3de7d703, 0x3e42c0b5, 0x3e64f0dc, 0x3e9d080f, 0x3f23763d, 0x3e8f6825, 0x3e2c36ac, 0x3e852871, 0x3e917e2d, 0x3e99f318, 0x3e7ae362, 0x3e076b09, 0x3e3977f2, 0x3e51baec, 0x3ebfac16, 0x3e408312, 0x3d12ed7f, 0x3e349ae4, 0x3e3a97dc, 0x3d957f08, 0x3e6cc2f9, 0x3ec2d9d3, 0x3e37b258, 0x3e537651, 0x3e84d146, 0x3e43df94, 0x3e2c8391, 0x3ea9a269, 0x3e78ae71, 0x3e40bd12};
const union data autoencoder_dense_bias_data = {.intval = (uint32_t *) autoencoder_dense_bias};
const uint32_t autoencoder_dense1_weight[32 * 16] = {0xbe81fa2c, 0xbe7733f5, 0x3f67d3f6, 0xbe985d9a, 0xbe686922, 0x3e974bb0, 0x3e2d89f0, 0x3ea03a98, 0xbe99cd02, 0xbe6b1b20, 0x3dc5847f, 0x3b1d282a, 0xbecda4f2, 0x3e5e04fd, 0xbeae7d17, 0xbeb1f8d4, 0x3e7b1193, 0xbe2f7270, 0xbf8272cd, 0x3eb720e2, 0x3f681ab2, 0xbe8dc2ab, 0xbd955fda, 0x3af9c945, 0x3e412c6c, 0x401b2e78, 0x3f0d7bd6, 0x3d723e6a, 0xbf007f70, 0x3e3bc099, 0x3d839ffa, 0x3d5064dc, 0xbf4750da, 0xbe8a6c64, 0xbd781f76, 0x3f56ec78, 0x3e998c39, 0x3eae35b7, 0x3f3bbc5b, 0x3de37fd2, 0x3ed8528c, 0x3e15ff0b, 0xbd68f993, 0xbe23e5c7, 0x3e797647, 0xbe86fef3, 0x40022d56, 0x3e09363e, 0x3ebefe9f, 0xbaf341be, 0x3ee3d4d8, 0xbd0aac4e, 0x3d017e21, 0xbe2b7699, 0x3c863ff9, 0x3d5e54e4, 0x3edb21c8, 0x3e9d7286, 0x3cc007ad, 0xbd9b9f83, 0x3e932308, 0xbe850180, 0xbd02f20a, 0x3ee83560, 0xbe592127, 0x3e77bd2b, 0x3ec42069, 0x3de087a1, 0xbdeee5ad, 0x3ef13767, 0xbda75cf0, 0xbef5a228, 0xbecf6272, 0x3e89070c, 0x3e8a2df7, 0x3ea92b96, 0x3e6016e7, 0x3d0df6d6, 0x3e82877a, 0x3dd6fbce, 0x3ead5ce1, 0x3e9d2621, 0x3fc51fbe, 0x3e31893e, 0xbcc9151e, 0xbe322c26, 0xbd0b63c9, 0x3ef21bb0, 0x3d363813, 0x3deba447, 0xbe18ea1e, 0x3fe6da98, 0x3f17796c, 0xbe071053, 0x3f57fc0c, 0xbe392a59, 0xbf27b7a3, 0xbe8f509d, 0x3f6ae7e3, 0x3f3c1607, 0xbde01e68, 0x3e638ec0, 0x3e9944b1, 0x3ed4810d, 0xbe12bbbd, 0xbde71a49, 0xbdbb836e, 0x3e2615ab, 0x3e798574, 0x3f0df9bc, 0x3fe6259b, 0x3f1309d9, 0x3d86debe, 0xbf01fd11, 0xbf1e61ea, 0xbe1629a6, 0xbe19ffa7, 0xbe16e19f, 0x3e613b90, 0xbec7bbac, 0xbcbd9cbb, 0xbf15e9c4, 0x3f133133, 0xbd0bf187, 0xbe7a5596, 0xbc12dc89, 0xbddeca30, 0xbe80fd27, 0x3e3a8c40, 0x3d7c5ed4, 0x3e8bac1b, 0x3e19c192, 0x3c975416, 0xbe99a797, 0x3ef207e3, 0x3dff4758, 0x3f9a135e, 0xbe7364c7, 0x3e993d77, 0x3d69f78a, 0x3e3fccdf, 0xbe2bcea9, 0x3f1a0ac2, 0x3fb3dbd0, 0xbe003b7a, 0xbe23da7f, 0x3f83e624, 0x3e9f7b89, 0x3f22a9b6, 0xbedee4ff, 0x3f1967ad, 0xbd702a11, 0xbd2276e0, 0x3fdeb918, 0x3dfd889e, 0x3fa4b575, 0xbeba22a2, 0x3eb43c17, 0x3ea38e90, 0x3e51c24c, 0xbe4dddaf, 0xbe9067dd, 0x3e9dafd5, 0xbe8cd119, 0xbd1bd530, 0xbad52f00, 0x3cd78e10, 0xbe923dae, 0xbdde9420, 0x3e245ace, 0xbe8e6a75, 0xbc99da00, 0x3e8c8e03, 0xbe48a037, 0x3dae982c, 0x3d624440, 0xbd5e7ae0, 0xbe2b0807, 0x3d976ec8, 0xbea27720, 0xbe58562c, 0xbe920125, 0xbe5f78ac, 0xbeaa1937, 0xbe2798b8, 0xbe5cabf4, 0xbeae52c7, 0x3e1acc7e, 0xbe907ae3, 0xbe34daec, 0xbe8e127d, 0x3e446016, 0x3f466c2c, 0x3c6947eb, 0xbe2bc0bf, 0x3defa401, 0xbf23956f, 0xbe80e9f2, 0x3e475eb0, 0x3e474119, 0xbe19dad1, 0x3dfecf05, 0x3e9422ac, 0x3e83eec2, 0x3f153765, 0xbf35eecd, 0x3e8bc9c4, 0x3ce2a8d0, 0x3d6b48ad, 0xbe23873d, 0xbeb91bd3, 0xbecc6a0d, 0x3e0ddee5, 0x3e697250, 0x3afa000f, 0x3f0fbacc, 0xbf8d203b, 0xbd8e617b, 0xbef2afbd, 0x3e3f1cd8, 0xbc595a86, 0xbed6f5f0, 0x3e74209e, 0x3c1071ed, 0xbe908770, 0xbeb57ae9, 0x3e0ff6df, 0x3e5afd79, 0x3d44f5cd, 0xbebeb87b, 0xbe9266ae, 0x3e4f3e5d, 0x3e05282b, 0xbdb7460b, 0x3e96d341, 0x3c96a5c3, 0xbeb12eba, 0xbe771189, 0x3d8a3edf, 0x3dd13e29, 0x3d5572fa, 0xbe5467fc, 0x3e832533, 0x3d886bd4, 0xbebb9f19, 0xbe937c0a, 0x3e28b05b, 0x3d3c7cd8, 0xbe6837f9, 0x3e8b6229, 0xbe6a7c6e, 0x3bffdd74, 0xbe3b108a, 0x3e7d96ce, 0x3d66e350, 0x3c3f8965, 0xbf517170, 0xbd386772, 0xbeeada3c, 0x3e0d8247, 0x3e929600, 0x3ec10b04, 0x3e4cabe1, 0x3ea2b0f4, 0xbf4f8b97, 0xbed244b1, 0x3f0fe7b9, 0xbc41c35b, 0x3e943873, 0xbebeb983, 0x3f16e7cf, 0x4039c1dd, 0xbc825d21, 0xbee4e948, 0x4001bd77, 0x3ced1c43, 0x3ef7b77d, 0x3e3fdefe, 0x3f9d0d7f, 0xbc698f11, 0x3eff74a4, 0x3f8684f8, 0xbe9ce924, 0xbf025e3c, 0xbf14e5ca, 0x3ec6f292, 0xbd47a514, 0x3de02484, 0x3edaf80e, 0x3e74d770, 0x3f6b9e31, 0xbe49e1b2, 0xbd67db47, 0x3ec34893, 0x3ee89d4d, 0x3e59b1ab, 0x3b796837, 0xbe5d8a59, 0x3e506071, 0x3d61e572, 0xbe889818, 0x3d613028, 0xbef6c7a8, 0x3f3bc354, 0x3eccd54e, 0xbe972177, 0xbe53f0cf, 0xbdb8e403, 0xbe42815e, 0xbe1caf8c, 0x3eb1de5f, 0x3ebd8663, 0xbe6d8127, 0xbf4999e3, 0x3efad03b, 0x3f12f7a5, 0xbec8b3f8, 0x3ec003c2, 0x3e8b3ede, 0x3d7fc8d4, 0xbf547a2f, 0x3c44bd2a, 0x3ea472b6, 0xbf1ae5c1, 0x3e1d460c, 0xbc3521ba, 0x3f66d3ea, 0xbec1307a, 0x3fa1e92c, 0x3e5e26ae, 0x3d105f18, 0x3e51ec3c, 0xbe4a1fe2, 0x3e3a7ccd, 0xbfbc4e62, 0x3f4ee2be, 0x3f305068, 0x3e570d61, 0x3fd67bd2, 0x3e450f2d, 0x3e57fe93, 0x3d1d60fa, 0x3e8fbd7b, 0x3e0ee192, 0x3ec5f560, 0x3f2aefe5, 0x3e441a15, 0xbe976a73, 0x3ebd490b, 0x3e673347, 0xbe831109, 0x3d72f6e7, 0xbeca1c3e, 0xbf8173ad, 0x3e1bef4c, 0x3c1f1ccf, 0x3e785aea, 0x3e9c41bc, 0x3f18f9a2, 0xbf0643c5, 0x3e80226a, 0x3d047a10, 0xbf28c000, 0xbe4172fa, 0xbe17065f, 0xbead51d6, 0xbd58f944, 0xbd16d7e7, 0x3f94a32f, 0xbdca576f, 0x3dfd1831, 0xbeb38b3a, 0x3e41280d, 0xbdf00764, 0xbd2adfb2, 0x3f0309ca, 0xbe13ab28, 0xbd7b00da, 0x3d0d2a30, 0xbdde7424, 0xbd555c6e, 0x3e31b89b, 0x3d92f4b9, 0x3f044229, 0x3dcdc989, 0x3f0e098d, 0xbe724566, 0x3e17c836, 0xbeb4786d, 0xbf2a7cce, 0x3f676f99, 0xbedd04c8, 0x3ff1e9f7, 0xbda21ed4, 0xbf17eda6, 0xbc637cc8, 0x3f008d3a, 0xbe2b78e3, 0x3d7ecce9, 0xbccfe329, 0x3e226a89, 0xba57366b, 0x39cc16d4, 0xbd7441bc, 0xbe3c9411, 0xbed109b1, 0x3d9addce, 0xbe88d16c, 0x3e81698a, 0x392ff2ca, 0xbe1a7cb4, 0x3d490ddc, 0xbdb3968d, 0x3e7dd831, 0xbce10332, 0x3e1a3f7d, 0x3f757a9b, 0x3b646e93, 0x3f0e8a2a, 0x3eb2ef35, 0xbeb9bb3d, 0xbd72d3e0, 0x3ee7f501, 0xbdaafc04, 0x3e32ede0, 0xbd1a26b9, 0x3e91eced, 0x3f1995ac, 0xbdf120f9, 0xbd2268ac, 0x3f88e956, 0x3f73bc50, 0x3ee87640, 0x3d96119a, 0x3fb8d061, 0x3ebbbd35, 0x3f078026, 0x3e805a6f, 0x3ec9ca34, 0x3e9d1362, 0xbe8ee1a3, 0x3fd956a5, 0x3e929370, 0xbe56eb9c, 0x3d8cdc39, 0x3ddec4e4, 0xbdc4fa6b, 0xbe98a937, 0x3d439008, 0x3d81d851, 0x3c962462, 0x3cf9b242, 0x3e889d47, 0x3e9419e2, 0x3e9ebf5b, 0x3e8effdb, 0xbe20fab9, 0x3d069164, 0xbc2fccd8, 0xbeda341c, 0xbe63a9d2, 0xbec51c44, 0x3c4b92f5, 0x3c080af7, 0x3d77d843, 0x3d71621b, 0xbd437859, 0x3ce0f7f4, 0x3b3b9c9a, 0xbe504d22, 0x3d280516, 0xbc3f3585, 0x3df0498f, 0xbdaae79c, 0xbddce54d, 0x3d27315d, 0xbd12308e, 0x3be56686, 0x3cde06de, 0x3fe750a6, 0xbf0250cf, 0xbc4fa15a, 0xbec4c7af, 0x3e360d7e, 0xbe8a574a, 0x3debab3f, 0x3d605d90, 0x3e9fa832, 0x3ec7271a, 0xbf2210cf, 0xbe340dd1, 0x3e88e68c, 0x3eec95ee, 0x3e31f920, 0x3f130d96, 0x3ef268b7, 0x3ebcfa66, 0xbf479d2a, 0xbff764c9, 0x3e330d29, 0x3e165a5e, 0x3e46a781, 0x3e8a662c, 0x3f126c7c, 0x3ec30979, 0x3d4c92cb, 0xbedf6f05, 0x3e8dd24b, 0xbf8a63cd, 0x3ee7dd22, 0x3de09197, 0xbe8e49bd};
const union data autoencoder_dense1_weight_data = {.intval = (uint32_t *) autoencoder_dense1_weight};
const uint32_t autoencoder_dense1_bias[1 * 16] = {0x3e5578ac, 0x3e46b8d1, 0x3d920835, 0x3d720c92, 0x3e84bba3, 0x00000000, 0x3e0ea7e5, 0xbd766f51, 0x3da389aa, 0x3e6a60f9, 0x3e74eddb, 0xbe967906, 0x3e0bda0c, 0x3e81cade, 0x3c012e73, 0x3df33630};
const union data autoencoder_dense1_bias_data = {.intval = (uint32_t *) autoencoder_dense1_bias};
const uint32_t autoencoder_dense2_weight[16 * 12] = {0xbe479b3d, 0x3f2fa34f, 0xbefbed64, 0xbf8797f0, 0x3dcd7743, 0xbd0ba990, 0x3f85da8c, 0xbdd401f4, 0x3ba55430, 0x3e8fd8a9, 0xbe47f59c, 0x3f9f3ff0, 0x3ec4bb9a, 0x3f141fef, 0x3ef76e9f, 0x3f0ac284, 0xbf1e5e33, 0x3f4aabb0, 0x3ecee84d, 0xbd5a5cd2, 0x3e599d4d, 0xbe3548ba, 0xbcb8adde, 0x3d1f74bb, 0x3e272ddb, 0x3e7d910f, 0x3efc3d0c, 0x3fb58016, 0x3e9b606c, 0x3dae34e1, 0x3f4252af, 0xbf3f41a0, 0xbea17a81, 0xbe4d03fb, 0xbe188932, 0xbe1124ad, 0xbde5f75b, 0xbe59a2ee, 0x3e9e95da, 0xbc432ae0, 0x3ec545fb, 0x3f0b8321, 0x3e9ef3d6, 0x3f8471eb, 0xbe63c598, 0x3f49b2be, 0xbe8ef8a6, 0xbea5f0c2, 0x3e77d956, 0xbdd4c091, 0x3f832ff6, 0xbec7fe0e, 0x3f4179dd, 0x3e7aca98, 0x3f03adc7, 0x3ed4455a, 0xbdd7cc23, 0x3ec09b99, 0xbe729c7d, 0x3ea025f6, 0xbe18b482, 0xbf039ce7, 0xbdaf355a, 0x3e87ccca, 0x3e3e159a, 0xbe82c615, 0xbef0fb3a, 0x3f1d63bb, 0x3f135da3, 0xbcf65670, 0xbf2c21b4, 0x3e427bf8, 0xbf010b4a, 0x3f66d97c, 0xbe810dec, 0xbe01b4cb, 0xbd973a3b, 0x3eb3a3dc, 0x3dc59791, 0xbf53b337, 0xbf1eead0, 0x3e8feb10, 0x3d75e9c2, 0x3ef3d0b5, 0x3f4dfb08, 0xbee8931a, 0x3f3dd66e, 0xbea87a5a, 0xbd603716, 0x3e435daf, 0xbe5ff38b, 0x3d98e786, 0x3f1f5c62, 0x3ebc872f, 0xbea5620d, 0x3dcabd49, 0x3ee8f0de, 0xbeadb773, 0x3dc1efff, 0xbe379168, 0x3f4577e6, 0x3e9a53be, 0xbf4a531d, 0xbe3f3cb2, 0x3ec25777, 0xbf0c6514, 0x3f1528c5, 0x3e76f5af, 0x3f20307d, 0x3eaeacc8, 0xbe471d58, 0xbebd85b7, 0x3e44506c, 0x3e7184ab, 0x3d4b52fc, 0x3d87e9d2, 0x3f023a8b, 0x3ce6cad0, 0x3e9a0a5d, 0x3c3ec4e8, 0x3f0ac078, 0xbda1e3cb, 0xbea1a664, 0xbe873bdd, 0xbe4100b2, 0x3e8c5dc1, 0x3f3bc82d, 0xbee014f2, 0xbf10f298, 0x3e3cbbb1, 0x3f5b0d0b, 0x3d58d91a, 0xbe1df6b2, 0xbd416330, 0xbf24f193, 0xbeb927c3, 0x3dcebea5, 0xbf6966e5, 0x3f1a8421, 0xbec624dc, 0x3e60b9dc, 0x3f29af17, 0x3cdf37f4, 0xbfdd955a, 0x3f8d5033, 0x3f41ecbb, 0x3f0ff74b, 0x3ebf05ac, 0x3d9a9d1e, 0xbe8b991e, 0xbdcd91ee, 0x3ee002e6, 0xbe1fb891, 0xbf7b9a2b, 0xbe6beb54, 0x3f994be0, 0xbee9103b, 0x3f14250f, 0xbea149dc, 0x3df906dd, 0xbea8353f, 0x3e6f9e32, 0x3e50e960, 0x3e848dec, 0x3e1fbda0, 0x3e8a5f8a, 0xbef81f5a, 0x3e960503, 0x3f2d3df9, 0xbe87dde4, 0x3e5fb175, 0x3eb75991, 0x3d063f22, 0xbe910b10, 0x3dda42c0, 0x3ebe6543, 0x3f2c24b3, 0x3e85003a, 0xbeb24b92, 0x3ca20513, 0x3f05ad81, 0x3db7d830, 0xbf47ff87, 0x3e44fc70, 0xbd89fe9f, 0x3f652d56, 0xbdb6efeb, 0x3f89c9b2, 0x3e67c69c, 0xbebc876b, 0x3f0ede56, 0x3eae8f56};
const union data autoencoder_dense2_weight_data = {.intval = (uint32_t *) autoencoder_dense2_weight};
const uint32_t autoencoder_dense2_bias[1 * 12] = {0x3e94b0e1, 0x3e6cf830, 0xbd67becd, 0xbdfc8170, 0xbf27be35, 0x3df30358, 0x3e3d4680, 0x3eb5241c, 0xbe96b4b5, 0x3c93c252, 0xbe4ad7ee, 0xbcef7226};
const union data autoencoder_dense2_bias_data = {.intval = (uint32_t *) autoencoder_dense2_bias};
const uint32_t autoencoder_dense3_weight[12 * 16] = {0xbed96470, 0x3d2d4410, 0xbe904b57, 0xbe6c461d, 0xbc28a120, 0xbea8fa1f, 0xbec6f312, 0x3e733cd8, 0x3ee6f4d6, 0xbe939a47, 0x3e19d0a4, 0xbc5698c0, 0xbcc64944, 0x3f2f9d25, 0xbf06fb66, 0x3f2a98e4, 0xbf8b6c47, 0xbe643127, 0x3ea21f42, 0x3f2fec36, 0x3fa50529, 0xbe378961, 0xbd74f98f, 0x3d95d023, 0xbeff3c7e, 0x3eb2a1d4, 0x3f2fbd15, 0x3cd2bc5d, 0xbe867b16, 0x3f00d35a, 0xbead2226, 0x3e276cdc, 0x3f1100fe, 0x3d4ad5e2, 0x3eab842c, 0xbe35b120, 0x3f4eda23, 0x3f1353c9, 0x3e7d1c4c, 0xbe66f070, 0x3f23201d, 0xbe6f2304, 0xbf450483, 0x3ea88d2b, 0xbccef00d, 0x3eef857d, 0xbe3e01be, 0x3ed916b5, 0xbeea461e, 0x3ea8fd89, 0xbeacd7d9, 0x3fa039cd, 0x3ff2be06, 0x3eb4f012, 0xbe09b48a, 0x3db20640, 0x3c99fff1, 0xbd8fae48, 0xbeb2d496, 0x3e65614b, 0xbd8784aa, 0x3ec6025c, 0xbe25d2ab, 0xbeb429e0, 0xbc0a6a9a, 0xbdadb575, 0x3f1278e7, 0x3da087c6, 0x3f993393, 0x3f729e1b, 0xbebe6f41, 0xbe8be530, 0x3cd0d420, 0x3f24607a, 0xbf00a70d, 0xbea860cc, 0xbf643352, 0x3f65442f, 0x3ebc28cc, 0xbf822a8b, 0x3e261e5e, 0xbc6932b4, 0x3ec8358d, 0x3ea7b75e, 0xbe57b059, 0xbeb5659d, 0x3e3f7de5, 0xbe753b66, 0x3ed98d46, 0xbd7d8862, 0xbf0bb0e1, 0x3e23d6e2, 0x3e11ccb0, 0x3db8e9b9, 0xbe23be0e, 0xbae6e58e, 0x3f31bad1, 0xbd5caae5, 0xbf35b490, 0xbc7c462e, 0xbf808278, 0x3f2627e5, 0x3b0285e2, 0x3f8d6192, 0xbf246007, 0x3e25eb4e, 0xbe5f9c7b, 0xbf058ef7, 0x3f42d440, 0x3e17dcf7, 0x3eacc644, 0x3f7cebd0, 0x3f794548, 0x3ec6c736, 0x3f22a49e, 0xbe2c8b1b, 0xbf4f3e0b, 0xbe965743, 0xbee27098, 0x3e4f44e1, 0x3ef35b53, 0xbe9fa950, 0x3f48876b, 0xbdc2cdce, 0x3f6b13a6, 0x3e837046, 0xbdec506a, 0x3edfd4f1, 0x3dd4134f, 0xbe91be28, 0xbf9d2e59, 0xbc3a0a5e, 0x3b8233ff, 0xbe987e97, 0xbe53ae0b, 0x3e35fd75, 0xbd843a45, 0x3f071a36, 0x3e03667e, 0x3dc6db2d, 0xbf05d8aa, 0x3f36bbee, 0x3d897f07, 0x3ddba3de, 0xbec90e43, 0x3d8a0062, 0x3e48f809, 0xbe533473, 0x3fcd9527, 0xbe0bca86, 0x3e56a6a3, 0x3f4ee69c, 0xbf928cc8, 0xbd826d5c, 0x3df712ec, 0x3f08c0c3, 0x3d70caa0, 0xbc9e037e, 0xbe577250, 0x3e98f94b, 0x3e089ba4, 0xbee600d7, 0x3d96cd7c, 0x3ec47d80, 0x3d8e0dd0, 0xbe80302a, 0xbee83b79, 0xbe651800, 0xbdd4570e, 0x3ea42e75, 0x3e1141ce, 0xbf408941, 0x402720a2, 0x3f46527e, 0x3c67162b, 0x3e859a04, 0x3f38bf4c, 0xbe4c3df4, 0xbf3cf378, 0x3e5184ed, 0x3d50cf6d, 0x3e735453, 0x3f1eacc9, 0xbe845c37, 0x3f8c31cb, 0xbca5c036, 0x3ef3bd0e, 0x3f4e9a58, 0x3fc63e11, 0x3dcef276, 0x3ebe1210, 0xbf1c495e};
const union data autoencoder_dense3_weight_data = {.intval = (uint32_t *) autoencoder_dense3_weight};
const uint32_t autoencoder_dense3_bias[1 * 16] = {0x00000000, 0x3e185c1a, 0xbe7bdd31, 0xbd51ec6b, 0x3e70bf79, 0x3e7d679b, 0xbd5f55a7, 0xbd86dcb4, 0x3d8a6021, 0xbe57bed3, 0xbc5fe5e7, 0x3c6ab6e0, 0xbe1b6a76, 0xbb98522a, 0x3f07bfb9, 0x3dd57e71};
const union data autoencoder_dense3_bias_data = {.intval = (uint32_t *) autoencoder_dense3_bias};
const uint32_t autoencoder_dense4_weight[16 * 32] = {0x3dc98738, 0xbe3ed644, 0x3e536d87, 0xbcf78003, 0x3eecccdb, 0x3eb9c36a, 0xbea32353, 0xbea07f80, 0xbef17615, 0xbc7e2339, 0xbd5d942e, 0x3e0a9931, 0x3f163d3a, 0x3e264e72, 0x3f86c7b1, 0xbed155c8, 0x3d254cf8, 0xbe145868, 0xbd9f8af8, 0xbd918d38, 0xbe1f1bb7, 0xbe4e3640, 0x3e64a1ee, 0xbe278baf, 0x3e860aef, 0xbe900032, 0xbe9de23f, 0xbe772154, 0xbe8d9c59, 0xbe8fa872, 0x3e85e99b, 0xbe836e5a, 0xbe923e69, 0x3eff5a90, 0x3e9ff7d1, 0xbec4d2e4, 0xbe524b85, 0xbdbe9847, 0x3c710cb0, 0x3e83eba0, 0xbe037f79, 0x3d43bb9f, 0xbeaa671c, 0xbe3cd62a, 0x3e05343b, 0x3df1be1d, 0x3efc7821, 0x3e262d76, 0x3e01dbea, 0x3e9387fa, 0x3f1ab349, 0xbed93bd3, 0x3e930317, 0x3e98994d, 0xbe38d6ae, 0xbea236f1, 0xbed4c358, 0x3e341928, 0x3ef86681, 0xbe3879f6, 0xbe0f9240, 0xbeb1c19a, 0x3e1f48e9, 0x3f1cd99f, 0x3e93d761, 0xbd0a486b, 0x3f8dcf81, 0xbea6865f, 0xbe411b4b, 0xbef752ff, 0x3ecd1d78, 0xbda5e469, 0x3f3d56d6, 0x3dff1492, 0xbeb5ba22, 0x3ebbbd96, 0xbeeb6c9e, 0xbd9b2d76, 0x3eb75276, 0x3e659c44, 0xbde2780a, 0x3e8dbcea, 0x3edd7d66, 0xbdcc0d1a, 0xbdcae8e7, 0xbef5f89f, 0xbe87e24a, 0xbce9b12b, 0xbd0c56d7, 0x3d7ad095, 0x3e11503b, 0x3d86b1d9, 0x3e8f340a, 0x3e1c3d4e, 0x3e700658, 0x3f014c8d, 0x3eabb523, 0x3ed17307, 0x3ea7ab91, 0xbf54a9ea, 0x3d627824, 0xbe345460, 0x3ea99c68, 0xbe844966, 0x3e936b81, 0x3def5d11, 0x3f13b417, 0xbd440d5f, 0x3e704142, 0xbea6ae03, 0x3e826bbf, 0xbdf4ae25, 0xbd2b20d0, 0x3ed9df31, 0xbf030cfa, 0xbe425237, 0x3dbbbd74, 0xbd963d49, 0x3ebe489a, 0x3e91d440, 0x3f26239e, 0x3e83c578, 0x3e68fd20, 0xbf087690, 0xbe02e78e, 0x3e35bbaa, 0x3e3c4c85, 0xbdf08c5f, 0x3e1b68ce, 0x3dccb804, 0xbe7a0c35, 0x3f474964, 0xbf76f5c3, 0xbdfc76fc, 0x3e913a8b, 0xbdcd9581, 0x3eecdc02, 0x3e9ba6bc, 0xbd076be7, 0x3efb7b7e, 0x3f19b20b, 0xbe1394e4, 0x3d8de69d, 0x3e2cff96, 0xbea8d2f4, 0xbe7d5a56, 0x3f27a269, 0x3f21ef4e, 0x3f15ad79, 0x3e9d9b2b, 0xbe9e6395, 0xbe790afa, 0x3eae400e, 0x3e4f8308, 0xbeb8c550, 0x3e25bb6c, 0xbf7e8cac, 0xbb86dc17, 0xbd903dd8, 0xbe161676, 0xbeabe91c, 0xbdd54e3c, 0xbe5a9d83, 0x3da9164c, 0xbe226542, 0xbe144929, 0x3e1bb902, 0xbd0495e8, 0x3db9eef0, 0xbd5b9fd0, 0xbd4863f8, 0xbe490489, 0x3e0f445e, 0xbe96a80c, 0xbe64d782, 0xbe4481be, 0x3e0ca268, 0xbe658df0, 0xbf0362c0, 0x3e3b7247, 0x3d3edbac, 0x3e1fc502, 0x3e8317e5, 0xbe21d39b, 0xbe21b769, 0x3f1df8fa, 0x3ec19184, 0x3ecb3d40, 0xbf24e7e9, 0xbe2840d4, 0x3e8b4dc0, 0x3d9e77bf, 0xbe57a5dc, 0x3d45c4ca, 0x3f0e80e9, 0x3e40d4ff, 0x3d9b4c7d, 0xbe6cd61f, 0x3e2da32a, 0x3d9879b9, 0x3f56aaac, 0xbeb37301, 0xbf415fab, 0x3e9a8706, 0xbefc976b, 0xbeaee96d, 0x3d1b6bd6, 0xbdeaa008, 0x3dc048f8, 0x3eb22b77, 0x3f9409b5, 0x3f199ee4, 0x3e8e19c2, 0x3d440ff2, 0x3f026d2e, 0xbe61ea02, 0xbe52cf5f, 0xbced2c9a, 0xbeb84984, 0xbe32c960, 0xbe46b659, 0x3e4ebf5c, 0x3e6df37a, 0xbe76363f, 0x3ea20d15, 0xbec1b1d4, 0xbeb20c5e, 0x3f2aa1c7, 0xbdb21b46, 0xbd4b6c0a, 0x3e7294aa, 0xbe0a97da, 0xbe691bc1, 0x3e592778, 0x3cd5e5bd, 0xbd1538d9, 0xbeff41b2, 0xbe820094, 0xbe5a9a4a, 0x3ee0d376, 0x3e9ff529, 0x3e8ebfe1, 0xbf0fdc63, 0xbd37cbe9, 0x3e1da68b, 0x3f5c4100, 0x3e97901b, 0xbe94b271, 0xbd919bb8, 0xbee97df2, 0x3db78ead, 0x3dfa5c09, 0xbe49b2df, 0xbc97c384, 0x3f5a698c, 0x3e12ab9f, 0x3e4d78ae, 0x3bc792da, 0x3e1a718d, 0x3ee37d54, 0x3ecb8b4f, 0xbe7b24a0, 0x3e3fc2e6, 0xbe8ce6d6, 0xbe95dc2b, 0x3e966d6e, 0x3f8773de, 0xbce3a09a, 0x3f57b613, 0x3e7acd12, 0x3efb2687, 0xbea91f12, 0x3cd43ae0, 0xbe0b60ba, 0x3d1a59be, 0xbeb4c45b, 0xbe886d1d, 0xbe01ce12, 0x3deaec8e, 0xbe9b34d6, 0xbe9ca29a, 0xbe3c6c3e, 0x3d67fa90, 0x3e153a7c, 0x3d2cab92, 0x3ddb9f14, 0xbe01a181, 0x3d07e349, 0x3e51f88e, 0x3f10813f, 0x3e7c07a6, 0x3ece9adf, 0x3f4fcd38, 0xbeb1fef9, 0xbe878380, 0x3e44803c, 0x3f0ef81f, 0xbeb29178, 0xbf011c1d, 0x3eaaf7fc, 0x3e323086, 0xbdecd826, 0x3e4e6f0e, 0xbeb5e332, 0x3eb24d69, 0xbe3c4797, 0x3e2979e1, 0x3e020704, 0x3d536ae5, 0xbdcf8d6a, 0xbec02e31, 0xbe101392, 0x3ea0b3aa, 0x3e7290d5, 0x3fc09238, 0xba278cae, 0xbeb195ab, 0x3e88db3b, 0x3eaef160, 0xbb889d0a, 0xbd7bf140, 0xbd6dea44, 0x3dcf46c2, 0xbd693d3c, 0x3d0bcfc3, 0x3e59de96, 0xbf4660af, 0xbe8d9924, 0x3f31a913, 0xbcd6ac71, 0x3f16e101, 0x3f63afbf, 0x3dbe6d95, 0x3e261272, 0x3f4243d6, 0x3e342700, 0x3e8235a5, 0xbddc87f0, 0x3e09073d, 0x3ea03077, 0x3ee9c815, 0xbea9bc41, 0xbf617235, 0x3e3f3708, 0x3e9307bc, 0xbeea4648, 0xbeb0b83f, 0xbea65f47, 0x3e8d6f26, 0xbe11ebe0, 0xbe285aa9, 0x3ec1fb08, 0xbd0515a8, 0x3daf27b7, 0xbedbb8fd, 0xbf202169, 0x3f0b83af, 0xbe23a2c6, 0x3f057f74, 0xbe8178cf, 0x3e967a87, 0x3ece3e69, 0x3dbf97d3, 0x3f42dd91, 0x3eac4df6, 0xbd037af7, 0x3d48c014, 0x3d995578, 0xbdd8b892, 0x3f0dbb53, 0x3eeb18f1, 0x3e0d1909, 0xbe3602b4, 0xbe476696, 0xbec36e4a, 0x3e1f0636, 0xbe968f74, 0x3e44fed3, 0xbe01e88d, 0xbe97079b, 0xbdf38962, 0xbe33811b, 0x3e317d55, 0x3f079e74, 0x3e69ed12, 0xbb9c0a46, 0xbe838682, 0x3e1ef935, 0xbe45c26f, 0x3d8f35f2, 0xbeaf3753, 0x3dbf2c0c, 0x3cbbbd14, 0xbee0a535, 0xbd1c480d, 0x3e2b68b5, 0x3e5c233e, 0xbe5d609e, 0xbec75e14, 0xbe139b74, 0xbe1bff89, 0xbe58cdbd, 0x3c95b120, 0xbe329b23, 0x3ca41ff0, 0xbcbdca00, 0xbe33f6e1, 0xbdd2ca98, 0x3db482f0, 0xbe262d83, 0x3c94e0b0, 0xbe44055b, 0x3e47973e, 0x3de663f4, 0xbe89ba25, 0xbd802364, 0xbd152180, 0x3e987e10, 0x3de8863f, 0x3ec5e556, 0x3ef11590, 0x3d1a733a, 0xbf272f0f, 0x3cf9899e, 0x3e4f47cb, 0xbd8d7769, 0xbe3e42f9, 0xbeffd2f4, 0x3eb097fe, 0xbe7323b9, 0xbec008dd, 0xbdc19f38, 0x3dec515c, 0x3f30c8f7, 0xbeadeac2, 0x3ba2839f, 0xbe2dfeba, 0x3ef010f7, 0x3e4d572d, 0x3da01b43, 0x3eec4c88, 0xbcba15fa, 0xbba843f8, 0x3efc38ae, 0xbd3d5e11, 0x3e6f4d4a, 0xbf1a6b7e, 0x3e664140, 0x3e721b16, 0xbec50b1f, 0xbeb25e95, 0xbec8bdb5, 0xbe6e7109, 0xbe180496, 0x3e710480, 0x3e90faab, 0xbd9a297f, 0x3dcb26c1, 0xbd84dbf8, 0xbe8b30f7, 0x3df84452, 0xbe993b28, 0x3de888a0, 0xbeba77a1, 0xbde6f708, 0x3ebb6032, 0xbf5054e5, 0x3e81b553, 0x3ed5dec9, 0x3f288e57, 0xbf09a2f1, 0xbdfa584a, 0xbedbcab7, 0x3e95a9e1, 0x3e8edb07, 0x3da08d8c, 0xbcbe5ed7, 0x3c5f5dc3, 0xbe496a9c, 0x3e73b71d, 0xbdcbe814, 0x3ee3697a, 0xbef49ae3, 0x3d28331e, 0x3de503cd, 0xbb4d77dc, 0x3e008002, 0xbd0eea04, 0x3f09d97a, 0xbeed26dc, 0x3e114289, 0xbe94fc5b, 0xbed60747, 0xbe97f221, 0x3f57159e, 0x3e0b000d, 0xbdc126b0, 0xbe6e7ad9, 0xbdeb7145, 0xbe2fe909, 0x3e367b41, 0x3e74cae6, 0x3e3f4e00, 0x3ead309e, 0xbe45a623, 0x3e2e6814, 0xbec7cfe9, 0x3ed11420, 0x3e6e28b5, 0xbde50cdb, 0x3f5b16c4, 0xbe793c70};
const union data autoencoder_dense4_weight_data = {.intval = (uint32_t *) autoencoder_dense4_weight};
const uint32_t autoencoder_dense4_bias[1 * 32] = {0xbf95bf07, 0x00000000, 0x3e28aa4d, 0x3e842a7f, 0xbd0b2244, 0xbe32f10c, 0x3de414f1, 0x3dc6dd5d, 0xbee68e15, 0x3ee868db, 0x00000000, 0x3ec1a094, 0xbe9dddb4, 0xbd03125c, 0xbeb56391, 0x3db2e4a3, 0x3f195ac7, 0xbb02a52c, 0x3dc69149, 0xbd62a397, 0x3e532db5, 0x3ea0df1c, 0xbea94ca3, 0x3e22a5df, 0xbda66adf, 0x00000000, 0x3e384a66, 0xbe342ef2, 0xbd3c2526, 0x3ead7ba5, 0x3f43909f, 0x3e3f43ed};
const union data autoencoder_dense4_bias_data = {.intval = (uint32_t *) autoencoder_dense4_bias};
const uint32_t autoencoder_dense5_weight[32 * 24] = {0x3cde2612, 0xbe3cffd6, 0xbe89879f, 0xbf1e56dc, 0xbf0ead74, 0xbf9f3ad0, 0xbea839ce, 0x3ea91011, 0xbf065434, 0x3f060ce9, 0xbe7ca856, 0x3e9923e1, 0x3d8b4d9b, 0xbd77ff1a, 0x3d6fa2af, 0x3f40bfd1, 0xbdb2cae2, 0xbdfa2858, 0x3e68227d, 0x3def308d, 0xbdebffbf, 0x3e6722e2, 0xbe7c7329, 0xbf589750, 0x3ea2b535, 0x3e9340bc, 0x3ce9ade6, 0xbe5543c4, 0xbe84763a, 0x3eecb9fd, 0x3f2b76f8, 0x3c06fa66, 0x3ce864f1, 0x3e27a0b6, 0xbed74bac, 0xbf61b4e2, 0xbf20f728, 0xbf566067, 0x3eba0bc9, 0x3e4b34fe, 0x3e2a887d, 0x3da42bb7, 0x3e177c3c, 0x3e6cd825, 0xbcd88176, 0xbe665a8c, 0xbce4f9dc, 0x3e630810, 0x3e435ffe, 0xbe2c8d1a, 0x3ea27547, 0xbea3fcc6, 0x3ea8980f, 0xbdfb2365, 0xbd7ca761, 0xbf136aa7, 0x3e8c2911, 0x3e8115f8, 0xbd8178ca, 0xbeba9481, 0xbdc545d8, 0xbc7ea3ac, 0xbda4b9ef, 0xbe1323c0, 0xbc91da9f, 0x3e8bdb18, 0xbf0d9bbe, 0xbf4935b1, 0xbe683906, 0xbe21cc15, 0x3dcf046b, 0x3c999de0, 0x3f291674, 0xbee61e72, 0x3dcfccb4, 0x3daa0fa4, 0xbe367df0, 0xbeada461, 0xbde93623, 0xbf537de8, 0x3ed6f56d, 0x3e0cac59, 0x3ed5d054, 0xbe463512, 0x3ebd9128, 0xbe7a8c10, 0x3e8da263, 0xbf4d80a9, 0xbe270d88, 0xbdfc3486, 0x3d775216, 0xbe98d3e7, 0x3d56c5e0, 0xbee0ac16, 0xbf5b3622, 0x3da54cd2, 0x3ab6268e, 0x3d9faf70, 0xbcc0a429, 0xbf4563cd, 0x3d12b7aa, 0xbd0698a8, 0xbeb73d7c, 0xbe374a2d, 0x3eca18f2, 0xbe980998, 0xbde83738, 0xbe9b0682, 0xbc71affd, 0xbe5c1c6b, 0x3da7a535, 0xbf4affd1, 0x3f1155b3, 0x3de132aa, 0x3eefa1ad, 0x3ea67b31, 0xbdaee844, 0x3e57534e, 0x3ee8b461, 0xbed9abce, 0x3d403295, 0x3e390390, 0xbc5861af, 0xbe9a232f, 0xbdc3d01d, 0xbf446777, 0xbf540b35, 0x3e54b91a, 0x3e05e42a, 0x3e9c7b54, 0x3e9d96e1, 0xbe4db35f, 0x3e053135, 0xbeb09b6e, 0xbdd3b085, 0xbde9e1cc, 0xbe19c851, 0xbe1967c2, 0x3e16c340, 0xbead75a1, 0x3eb1ac87, 0x3f41eac4, 0x3db697e9, 0xbf1744a0, 0x3f0e7e2b, 0xbd5ec173, 0x3ed244d0, 0x3e96367a, 0xbeb86b95, 0xbd492344, 0xbe4731e0, 0xbef22fc7, 0x3e91b306, 0xbe3b3d36, 0xbcfd427f, 0xbf3d25a5, 0x3dfe3c36, 0xbf57437f, 0x3da1e24a, 0xbe112ae8, 0x3d3ad912, 0xbe5a1c7f, 0x3d1387ed, 0xbe1188de, 0x3e792e4a, 0xbe976855, 0x3e52525b, 0x3e9f9e17, 0xbf0e2be4, 0x3df946a3, 0xbe36e5b1, 0xbeb23dd0, 0xbe2320ff, 0x3f4f5724, 0xbd3fcb23, 0xbe869f56, 0x3f20e7e2, 0xbe8a313b, 0x3d9f2cfe, 0x3e33911d, 0xbf02b42c, 0xbd8a1891, 0xbf11aa6e, 0xbb9a7453, 0xbdcb9d39, 0x3c1de640, 0x3ccbd623, 0xbf1d5bf5, 0xbe58aa45, 0xbf1c03b2, 0x3e328034, 0xbe71411b, 0xbe486f4c, 0xbe2e769f, 0xbdb1457b, 0x3e2780b5, 0xbe920c88, 0x3ead2969, 0x3cefc7cc, 0x3f27b71f, 0xbf11cd4f, 0xbe9cc834, 0xbe734990, 0x3e56349c, 0xbf6733ac, 0x3ef5caa7, 0xbdb064bd, 0xbef577c0, 0x3ea7c46c, 0xbdd94965, 0xbe9350fa, 0xbde854a8, 0xbeac2af4, 0x3dcfa62a, 0xbe99ce15, 0x3d77c471, 0x3d248f52, 0x3ea65ee0, 0x3d724919, 0xbdf1eb99, 0x3e793409, 0xbce0c0d0, 0xbd7fc845, 0xbe6b0dd1, 0xbe03a975, 0xbcdbe330, 0xbdcd2354, 0x3e94f5c5, 0xbef64540, 0x3dbeca82, 0xbd917e4a, 0x3f132de9, 0xbe985af1, 0xbf559586, 0x3e17ea46, 0xbe2ec089, 0xbdc04d68, 0x3d9c0033, 0xbcba8456, 0xbe83dcaa, 0x3ec2bd17, 0x3e0f57cc, 0xbf29e1e6, 0xbf08de12, 0xbeea749e, 0xbc397439, 0x3e26f863, 0x3e92391c, 0xbd183d5a, 0xbe46636b, 0x3da39d10, 0xbbb011ff, 0x3e950567, 0x3f327d99, 0xbec6e412, 0x3a2b3129, 0x3e78323a, 0x3e932cf0, 0x3e9af12b, 0x3e8488b9, 0xbf12566a, 0xbe25e617, 0xbda48d82, 0xbd9e39bd, 0x3c322ea8, 0xbf5c51f4, 0xbe7d6056, 0xbe4e2231, 0x3f1abdfc, 0xba812e8c, 0x3c73820b, 0x3ec9877c, 0x3e35126b, 0x3e84f716, 0xbdcc462f, 0xbf8fa166, 0xbf1c3157, 0xbd4e7f2d, 0x3e953394, 0x3db579b3, 0xbbfeb1ed, 0xbdc428a4, 0x3ca60b1e, 0x3dc8e712, 0x3e732076, 0x3e61831c, 0xbeebc484, 0xbcb1224a, 0x3e123079, 0x3e9499c0, 0x3dec2bdc, 0xbe919266, 0x3dbfb7d5, 0x3d3aaf02, 0x3d8ebfed, 0xbee47f23, 0xbca63e41, 0xbed4cb82, 0x3e9fba68, 0xbecf0bc2, 0xbe533426, 0x3ee61726, 0xbc37fa8f, 0x3ef297c8, 0xbe0444c3, 0xbea80c21, 0x3e4618a2, 0xbfdd5970, 0xbee63d7a, 0xbcd09eed, 0x3de868a7, 0xbede4ddf, 0x3e7c6218, 0x3de4f948, 0xbbcd7cb5, 0x3f04ee58, 0x3d11eb41, 0xbdfc7566, 0xbe1754a2, 0xbe3585c5, 0xbfcf78d0, 0x3d90f754, 0xbee00e2c, 0xbd98e4ea, 0x3ea131af, 0xbe3a665d, 0x3da9f637, 0xbd69d471, 0x3e2fd178, 0x3db55a88, 0x3e323bf8, 0xbee620f0, 0xbf2eab7f, 0x3ec493a2, 0x3c9039f7, 0x3ce320b1, 0xbf19b7e8, 0x3e854564, 0x3e99f80a, 0xbf8fbf33, 0xbeaf219b, 0x3da192f0, 0x3e35ad7b, 0xbe0fa45c, 0xbe59979c, 0xbe61161a, 0xbcf65285, 0x3f108995, 0x3e173cf5, 0xbec88cae, 0xbdff9422, 0xbea644cc, 0xc084815e, 0xbe461f4b, 0xbeb4b92d, 0x3db4dfad, 0x3eca98f7, 0x3d62ff10, 0xbd08cf6b, 0x3edc375b, 0x3e72e6b4, 0x3e07157d, 0xbe786db4, 0xbbc3a540, 0x3d26fb3c, 0xbd379d66, 0xbd132696, 0xbeb99c1c, 0xbf15feda, 0xbcde7225, 0xbd8f0872, 0xbe88d35a, 0xbee5b83a, 0x3cf7bf00, 0xbac61e9e, 0xbdefbdcf, 0xbe9cb69b, 0xbe8719d6, 0xbd889943, 0x3eb39b9d, 0xbe42907c, 0x3e00d88c, 0xbdbe9c6f, 0xbf254c3f, 0xc05a27d6, 0xbe969416, 0x3e50b6b2, 0xbea5f4e8, 0x3e6d48ac, 0xbe22499d, 0xbd132569, 0x3ec0a2a1, 0x3e940d49, 0xbe3a848d, 0xbe919d38, 0x3e2b54f9, 0x3eb3fb79, 0xbd58e930, 0xbd233611, 0xbeb9cdbc, 0xbf1081b6, 0x3e733952, 0xbedc1ef2, 0x3ebec455, 0xbe872219, 0xbe154a7c, 0xbe338e8d, 0x3e4d3c36, 0x3d97c8f4, 0xbea10282, 0xbdb5119d, 0x3e79d52a, 0x3e393cd6, 0x3e0d428f, 0x3dda4ccc, 0xbf06702c, 0xbf783401, 0xbd959da8, 0x3eb81a83, 0xbe9b32a9, 0x3d3c51e7, 0xbe791a92, 0xbd2be9c7, 0x3dfee10f, 0x3f2645e1, 0xbe832a78, 0x3c91f0a0, 0xbe4c1e0e, 0xbe5cf810, 0xbd56335c, 0x3e66df9a, 0xbd360a23, 0xbf190a83, 0x3dc0bf34, 0xbf1295ed, 0x3ecd4404, 0xbd0b2c46, 0xbe2d2e1e, 0xbec0453d, 0x3bbd01df, 0xbe61f8a0, 0xbe290fa5, 0x3e0608a2, 0x3dadf3ae, 0x3ea1bd69, 0xbec4197c, 0x3eadfa8a, 0x3de0e488, 0x3e76dfca, 0xbccd8a70, 0xbe5ab30d, 0xbdb1af27, 0xbd790348, 0xbaac6270, 0xbe78bbd0, 0xbd0e37ac, 0x3f1a9e20, 0xbeb72094, 0x3d22c718, 0xbe800435, 0xbdb6e25f, 0xbdf7a107, 0x3dc8033e, 0x3edcadf5, 0xbe154666, 0x3d0d1b62, 0xbf18d464, 0x3c9978b4, 0x3e58102f, 0x3ccdcd2e, 0xbee3ae78, 0x3de0271b, 0xbd0535c2, 0x3c6e2400, 0x3d366634, 0xbe1fef72, 0x3e912c24, 0xbefd2c06, 0xbd815353, 0xbe08e360, 0x3e7724b8, 0xbe924bc1, 0xbee78804, 0x3e3a5b63, 0xbeabb79c, 0x3d2515c6, 0xbe945e30, 0xbf29fd1b, 0x3edc62ad, 0xbd692a1a, 0x3e68aa64, 0xbeb67a7f, 0x3dc3658e, 0x3db9ca2c, 0xbead5201, 0xbdfd9898, 0xbd676d64, 0xbc6cbbaf, 0xbe86c3cb, 0x3d2c4ee5, 0x3ea891d2, 0x3db114ae, 0xbebe33c0, 0x3e9bef10, 0x3e13a4a0, 0x3de378b8, 0xbe9ae12a, 0xbe4ccfbf, 0xbcb57bb3, 0xbcdc60c5, 0xbdaa3cac, 0xbec7de81, 0xbb198c04, 0x3e4af050, 0x3d5aaa24, 0xbd97f571, 0xbeb644ac, 0xbe00ee14, 0x3e07006b, 0xbf583d3a, 0x3d920852, 0x3e948c4f, 0xbce8c170, 0xbef7430a, 0x3dc1cb94, 0x3d5b6540, 0xbea12a08, 0xbec0b9cf, 0xbdfc57c5, 0x3d40b73e, 0x3e7427c0, 0x3da37365, 0x3f20a1fa, 0xbe9b9f84, 0xbf0de80a, 0x3ef151ea, 0x3e92f422, 0xbe7e3174, 0xbdca23f0, 0xbe20595b, 0x3e94b536, 0x3e83c672, 0xbefbf544, 0xbf11ae9e, 0xbdab4d34, 0xbe3449bd, 0xbe112bad, 0xbd268423, 0x3c8ca9bf, 0x3dbad1a9, 0x3e9fbaf6, 0xbedeb8b9, 0xbe88c913, 0x3d72b15c, 0xbe5cf176, 0xbf1341cc, 0xbde727f1, 0xbea63597, 0x3e74a2ff, 0xbe54c211, 0xbe421e86, 0x3e9125aa, 0x3f127314, 0xbe232d0e, 0x3f329dd1, 0xbf3044f5, 0xbf14c769, 0x3e7ee97b, 0xbe0a06f6, 0x3e088438, 0x3f0158b6, 0xbe17d1af, 0xbc7145fa, 0x3e0c034e, 0xbe8d7fe2, 0xbe7374cc, 0xbdbba590, 0xbe73b904, 0x3e3e597b, 0xbdf2cf43, 0xbe0c2758, 0x3e180544, 0x3d894b10, 0x3d9779a2, 0xbf1eea3e, 0xbe9d9843, 0x3cc264a0, 0xbf2b7151, 0xbe52a886, 0xbeca0f89, 0x3f1c1d9a, 0xbdfa0798, 0xbe121a9f, 0xbddddb36, 0x3f0c34bf, 0xbea7fa79, 0x3f7ac0ac, 0xbf01e08e, 0xbd532c28, 0x3d3d2c6f, 0xbe42a288, 0x3e91a29e, 0x3e142443, 0xbdb0fdcc, 0x3e829545, 0xbe89107b, 0x3eb6cb56, 0xbe90f012, 0xbd97627e, 0xbd912e74, 0x3deac592, 0x3dee4f64, 0xbdb441c7, 0x3e11d4bd, 0x3e12998c, 0x3ee4de06, 0xbf00b761, 0xbf07181e, 0xbe8d9bb1, 0xbf03d704, 0x3dada5c9, 0xbeee7faa, 0x3e3cfd1d, 0x3d330fa9, 0xbe64c8a6, 0xbe7fd652, 0x3ef96e95, 0xbe9a64c1, 0x3f4c7d7e, 0x3df1f1b7, 0x3e0c1736, 0xbe7f710a, 0xbd89845b, 0xbe26d1ad, 0xbef1007d, 0xbe9de55c, 0xbe997ab6, 0xbe282f0a, 0x3ed7ad6f, 0xbeb65aaf, 0x3e12a299, 0x3d89b028, 0x3e93942d, 0xbc01622d, 0x3d822d34, 0xbe180a5e, 0x3ed1eddc, 0x3e3e6da2, 0xbee8369b, 0xbe4faed4, 0xbd0b1758, 0xbd86777b, 0x3e34617a, 0xbed14a80, 0xbf112fac, 0xbd11a94e, 0xbe53fe37, 0x3e90342c, 0xbe0b3915, 0xbdf98731, 0x3f0b41b7, 0x3f170054, 0x3db17d64, 0xbe2acd54, 0x3d3fa56a, 0xbea5d564, 0xbe926810, 0xbaa85638, 0x3d271a31, 0xbe83ca90, 0x3e000402, 0xbe152340, 0x3e606d9e, 0x3e3cd750, 0x3da43503, 0x3e871563, 0x3ec4f395, 0xbebb22e8, 0xbcfbabcd, 0xbd9136aa, 0xbedb2749, 0xbdabdf7f, 0xbe8db4d1, 0x3e2a69a8, 0x3d159d2a, 0xbd301f8e, 0xbf2a4a39, 0xbe84f174, 0xbee5631f, 0xbe41a53a, 0xbf1a1007, 0x3e266881, 0x3ec392fc, 0x3f072659, 0x3e591a81, 0xbe640228, 0xbe357add, 0xbe9eb179, 0x3e2d19a3, 0x3d85923c, 0x3e8332a7, 0xbe733899, 0xbe70f652, 0x3e8765d2, 0x3c2f6285, 0x3d76e228, 0x3bd9311f, 0x3f185388, 0x3ef24b7f, 0xbe5ff429, 0xbee07f28, 0xbea8e922, 0xbeaf8cd9, 0x3e065324, 0x3e5f1708, 0x3e8a439d, 0xbd36c3f6, 0xbcbd1dd1, 0xbc94a72f, 0x3c09ea49, 0xbee50398, 0xbd6e53ef, 0xbf06ec82, 0x3e131e75, 0x3e7a8b39, 0xbdb6feeb, 0x3edf903d, 0xbed0e9e8, 0xbda8f96b, 0xbdeb87f0, 0x3e7482e5, 0xbe7aa82c, 0x3e3045a0, 0xbe9101c4, 0xbf125519, 0x3dcc5b2f, 0xbe43a2cc, 0x3d04ae60, 0xbeaf493c, 0x3e85fcee, 0x3e1a7702, 0x3e77db9a, 0x3de8a854, 0xbf33bb54, 0xbec0e947, 0x3e001e18, 0x3e93d588, 0x3ec6e0ef, 0xbdb660b9, 0x3e133475, 0x3f48e64c, 0xbd81eac2, 0xbf0875be, 0xbe80d2d3, 0xbe4e3da0, 0x3d141fa7, 0x3e973fc5, 0xbf6a5884, 0x3e7721d8, 0xbe2ae21d, 0x3dd970d3, 0x3d98ab48, 0xbe8a89f9, 0xbe539ac1, 0xbe1c961b, 0xbe36898e, 0xbeda3843, 0x3e9e6f1f};
const union data autoencoder_dense5_weight_data = {.intval = (uint32_t *) autoencoder_dense5_weight};
const uint32_t autoencoder_dense5_bias[1 * 24] = {0x3ecc1707, 0xbdc2b3b8, 0xbec38eae, 0xbea8a497, 0x3ba975ce, 0x3e3ba8b1, 0xbc22d333, 0xbd3ea108, 0xbe8ca92b, 0xbf415511, 0xbf14c3a8, 0xbea479c9, 0xbde880df, 0xbe3cea74, 0xbe85e15f, 0xbeed087d, 0xbe88c567, 0xbe2eb453, 0xbe28e126, 0x3cb35e5b, 0xbc62117d, 0x3d66d10b, 0xbe08a948, 0xbf2c085d};
const union data autoencoder_dense5_bias_data = {.intval = (uint32_t *) autoencoder_dense5_bias};

// CN
const uint32_t cn_hidden1_weight[48 * 32] = {0xbeec8ab0, 0xbe80db91, 0xbc0f6254, 0x3c809546, 0xbd39309a, 0x3c4fb74b, 0x3df5188c, 0xbd3ee4ba, 0x3c1e6162, 0x3d3ebd42, 0xbc01b66a, 0xbc93e3b8, 0x3d8d13f4, 0x3cdaa5e5, 0xbe0056c1, 0x3d3ac81a, 0x3d245a95, 0x3d486f17, 0xbae335d4, 0xbd9f3fcd, 0x3e9cb4d6, 0x3e95000f, 0x3d0cbed7, 0xbf62ec90, 0xbf947c8a, 0x3b3016fd, 0x3e73dda4, 0x3c9ea6c6, 0x3e3d75f8, 0xbc3f9b46, 0xbe7b3823, 0xbf0ea292, 0x3e3d70f5, 0x3eae4e49, 0x3cea8f6d, 0xbf794ba4, 0xbf2872c5, 0xbb38a352, 0xbf2e06b2, 0xbf8bc319, 0xbf6182a7, 0xbf8ffcee, 0xbf8e5b95, 0xbfbead87, 0xbf816e48, 0x3e5ec6e6, 0x3f2fa7d4, 0xbe703210, 0xbe577269, 0xbeaa766c, 0x3b859dc1, 0x3d2fa9b7, 0x3c3dd3b8, 0xbca7e36c, 0x3c4516a4, 0xbd858bb0, 0xbd1deaf2, 0x3c350398, 0x3c91573b, 0x3d39c468, 0xba9a1e71, 0x3b8b4480, 0xbcd0a275, 0x3b845022, 0x3c334c73, 0x3d9f3f49, 0xbb309e42, 0x3c922db5, 0xbce5546d, 0x3d193940, 0xbd471f02, 0xbfdcbfc5, 0xbe68850b, 0x3e04eae0, 0xbd8b8e43, 0xbe4c5eee, 0x3f55a2b8, 0x3de7d0e4, 0xbf8cbd7d, 0xbe8cd612, 0xbf396f72, 0xbeb85d3f, 0xbe3a80a7, 0x3e9e5652, 0x3f0c17df, 0xbefac028, 0xbf41deb7, 0x3eb078ef, 0x3e639578, 0x3d94a2d7, 0x3ee9f9de, 0x3b00fb80, 0xbdea4c31, 0xbebe90d6, 0xbedf71f7, 0xbf12f069, 0xbe83a522, 0xbb659c89, 0x3bb9c6cb, 0x394b2a71, 0x3bffec11, 0xbb43d57a, 0xb842bc62, 0x3ced7cd8, 0xbabcf4f8, 0x3b4f9c71, 0xbb6afa96, 0x3ce825db, 0xbb9b02d8, 0x3cb48c9c, 0xbbffbc1e, 0xbb219b32, 0x3c17674f, 0xbc923a5f, 0x3c327512, 0xbd16e0ea, 0xbc3e72ad, 0x3c95687d, 0xbc5e9d16, 0xc0167dbc, 0x3e7b88dd, 0xbe58e6eb, 0xbe82aa3d, 0xbe868a90, 0x3eec9edc, 0x3e0d14e9, 0xbefbca5a, 0x3e9b7514, 0xbda0ade8, 0xbf159c0f, 0xbeecf49c, 0x3e67a2a0, 0x3efa987a, 0xbe5fa206, 0xbeb57390, 0x3dd4f073, 0xbbc68fe8, 0x3dca8aef, 0x3df2cb24, 0xbe2ce876, 0x3e3f487e, 0x3eab021b, 0xbdf3cfea, 0x3d0ccee9, 0x3e07355c, 0x3dfe1945, 0x3e6b79b3, 0x3ec58af0, 0x3e55bc85, 0xbe1c572b, 0x3d3453bc, 0x3db583a8, 0x3e133fa3, 0x3e8aa13a, 0x3e54f201, 0xbe2e0383, 0xbdd9a9fa, 0x3e76fb53, 0xbe39691f, 0x3e76b6eb, 0x3d7c69aa, 0x3df93722, 0xbe9f541a, 0xbeb1b00e, 0xbe47ad7f, 0xbf444cba, 0xbf5a9272, 0xbec9d4d9, 0x3e0f7944, 0xbf02582d, 0x3de52e5e, 0x3e81a3be, 0xbe38f668, 0xbd22fcd4, 0x3e8426c1, 0x3e4f9e2e, 0x3ddfc311, 0xbee67e76, 0xbed85c1a, 0x3f0c150e, 0xbd3a8c3e, 0xbe1da5e7, 0x3cac5bf0, 0x3cb5a3b2, 0x3e0fe003, 0xbcee25ff, 0x3e7dad05, 0x3e2d450d, 0x3d5e5f37, 0x3eab0f6b, 0x3f612a15, 0x40183a31, 0xbd20d438, 0xbe6a4332, 0x3dedbe4a, 0x3d9adb77, 0xbe31475e, 0xbdbf5f44, 0x3d96cffa, 0xbc5f086c, 0x3d98f74b, 0xbd91dc07, 0x3df948ea, 0xbde59973, 0xbd2bd4d1, 0xbcc1bc7c, 0x3c62a0be, 0xbd29b197, 0x3cd99043, 0x3cfde941, 0xbd10c63c, 0xbccfb27b, 0x3c31de91, 0x3cc35610, 0x3d05126a, 0xc01025c9, 0xbebedf00, 0x3e4032e1, 0xbdf72b11, 0xbf1016d3, 0xbe036055, 0x3ea976fa, 0x3e52daf2, 0x3e84b407, 0xbea9640a, 0xbf6cb251, 0x3e854efc, 0xbe8059e7, 0xbee41891, 0x3d1202ac, 0x3e89c109, 0x3dfe2e1a, 0xbe60c1e7, 0xbe8fbe71, 0xbf49dfee, 0xbf4c5b8a, 0xbf5992b5, 0xbf0bf18d, 0x3ea325f3, 0x3fb6fdec, 0xbdfb703d, 0x3e0ec8bd, 0xbdd7396d, 0xbd53ff8e, 0xbcc749d3, 0x3cdf3169, 0x3d0d6ffe, 0xbc2598ee, 0xbbc96578, 0x3c01846f, 0xbc4d8a7f, 0x3c2a06b6, 0x3c3d3d20, 0x394e48e4, 0x3b2ab17c, 0xbc44ea9e, 0x3c6b4fc9, 0x3c82a3fa, 0x3bdca020, 0xbd283c0a, 0xbc957324, 0xbc98b235, 0xbb6cf427, 0xc00dcb2c, 0x3ec7080b, 0xbedc889e, 0xbe8a8cbe, 0xbe591801, 0x3d372b3b, 0x3e91794c, 0x3cab713c, 0xbdee012f, 0xbd22dbb3, 0xbf07feeb, 0xbcdf378e, 0x3d3fd17b, 0x3f06d4d0, 0xbe28d0b6, 0x3e7845d6, 0xbed4b498, 0xbf9205e2, 0xbd52c0ea, 0x3f1aa5fc, 0x3db2ab23, 0xbde5482e, 0xbddcd5d0, 0x3ddc0ace, 0x3f102d9f, 0x3e3276df, 0x3e190ec8, 0x3e97a134, 0xbe34af24, 0x3e75c1fa, 0x3e2a40d4, 0x3e7805fd, 0x3da23143, 0xbd0335c3, 0x3e238f8e, 0x3e4d757e, 0x3e881596, 0xbe34a6d6, 0xbcffe3f4, 0xbe41e454, 0xbdae43bf, 0x3dc3842b, 0x3dc9c5d9, 0x3d4fa0e6, 0xbe726926, 0x3d8d4bc9, 0xbf1c6d03, 0xbf61aab3, 0xbf5cff18, 0x3ed80551, 0xbe8e1e3a, 0x3e04a86b, 0x3e9b90ec, 0x3c72389b, 0x3dad24e7, 0x3dc3fd88, 0xbe431e94, 0x3e15db9a, 0x3e9682d1, 0xbda17eec, 0xbe125756, 0x3d98f07c, 0xbeb9e40d, 0x3dc6f5e7, 0x3e4456b0, 0x3e819cb2, 0xbe2d2b11, 0x3ec9e229, 0x3e906d5a, 0x3e4915b1, 0xbbe3223c, 0x3f8c3f4c, 0x40157390, 0xbedbfca5, 0xbb31451b, 0x3d8a4f06, 0x3d74d0bf, 0x3ccc550b, 0x3d2c5349, 0xbd9360ad, 0xbd4b7557, 0x3cc44f27, 0xbd2c71eb, 0x3d172645, 0xbd0a39e1, 0x3c153bc8, 0x3be7723a, 0xb958797a, 0x3d433159, 0x3c275998, 0x3bdfd672, 0xbb21edf4, 0x3c7177cd, 0xbba60dd3, 0x3d086045, 0xbc56a81f, 0xbff8e7a7, 0x3ed833ae, 0x3b2a446c, 0xbeb0d4e0, 0xbfa2ec68, 0xc01aa6dd, 0x3e7b2b6c, 0x3ee074b9, 0x3ec143c2, 0xbf379f61, 0xbf396914, 0xbe3e0654, 0x3dac35e4, 0xbdee686e, 0xbe26ef12, 0x3f0dd722, 0xbb916abc, 0xbf671ee1, 0xbd0767a9, 0xbe3d8727, 0x3ec4176a, 0xbdad1ede, 0xbe2a97f3, 0xbec0fac3, 0xbe7d8261, 0x3c9dbd9a, 0x3d04a3b2, 0x3d89867e, 0xbd6551d2, 0x3df8d6b0, 0xbe1d857d, 0x3d104039, 0x3d5a1bcf, 0x3d6d9416, 0xbd4b15e9, 0x3de51a1b, 0xbdfc89f3, 0xbc328589, 0x3d4d8097, 0xbd9d35a6, 0x3db1c165, 0x3c85ed2e, 0xbd928f97, 0x3d3a4654, 0x3dde8cc2, 0x3dec6714, 0x3e897dfc, 0xbe90d773, 0xbfde5485, 0xbe2090d4, 0x3d860d7b, 0x3e37140b, 0xbea03829, 0x3e44a6ae, 0xbe095d07, 0x3dd2bca7, 0x3e270ffb, 0xbee82e60, 0x3baaddda, 0x3ec7af07, 0xbe629a12, 0x3e4e632f, 0xbe143dbb, 0xbe8f10d7, 0xbeaaf426, 0x3d26c2e3, 0x3d56bd16, 0x3e405976, 0x3c119139, 0xbf4348aa, 0xbef58e40, 0xbd3faa65, 0x3f811dfb, 0x3d4ebfeb, 0x3ccf1598, 0x3c02d739, 0xbcfcd626, 0xbd1fc667, 0xbda60401, 0x3cc8b003, 0xba433f8d, 0xbc7f01e9, 0x3d3a708a, 0x3c3e87cf, 0xbbb7ed8d, 0xbd3c3d06, 0x3cdbf629, 0x3d1552ac, 0xbcf478b2, 0x3cb6ca35, 0x3d1d4afb, 0x3beee22e, 0xbaa07ee0, 0x3cabc71d, 0xbc838698, 0x3d8539f0, 0x3ea9d2a9, 0xbffee855, 0xbfae606e, 0x3e8083f0, 0x3e405821, 0xbe1dd57a, 0x3e230854, 0x3ed0eef3, 0xbc55434a, 0x3eba8c71, 0xbe3f7779, 0xbfa33ca3, 0xbfb878c1, 0xbfa87db8, 0x3f17109b, 0x3f60df8d, 0x3e8b4c05, 0x3f6f157a, 0x3f883767, 0x3f2d2a26, 0x3d308a6e, 0xbe831a8e, 0xbe08a39f, 0x3e80e265, 0x3e244f24, 0x3e18e591, 0x3ea7e1d7, 0x3edae6b1, 0x3e98fde1, 0x3de9fd6a, 0x3e7709f0, 0x3e3f3552, 0xbe6436b2, 0xbc4b2a6f, 0x3e11df7a, 0xbddcdc26, 0x3e63d0dc, 0x3e2502ee, 0x3e2b2c0c, 0x3d07ef88, 0x3bb70150, 0xbe1d1cb0, 0xbd3cee31, 0xbe19fd5a, 0x3dea414e, 0xbe6e8876, 0xbe5de325, 0xbe81e48c, 0xbec9b3f8, 0xbec95cd8, 0x3dd5bb9c, 0x3e042a5a, 0xbea5bc44, 0x3d3d2e5d, 0x3ed53902, 0xbe50c8ba, 0xbea3b5f1, 0xbe4316c8, 0xbe5506dc, 0x3c9626ff, 0xbe239564, 0xbe169fac, 0xbef5723d, 0xbf357fad, 0xbef324fa, 0xbe2fe1b9, 0xbdf9d5be, 0xbea2ee2b, 0xbf3d5477, 0xbecfe2be, 0xbe84b4aa, 0x3f17c4cf, 0x3e97a8ff, 0xbad46792, 0x3d610bab, 0xbd6fbaa6, 0x3c409491, 0x3bd6ce59, 0xbc879a18, 0x3d321c01, 0xbc42dc39, 0x3b79b178, 0x3c8aeba9, 0xbc939d50, 0xbc82b0ee, 0x3d05b913, 0xbcb7da9c, 0x3b1138d6, 0xbc7d1306, 0x3c1fd23b, 0x3f53e3dc, 0x400dc581, 0x40128b74, 0x3fed4959, 0x3ff54517, 0x3ffb6f4f, 0x3ffb2179, 0xbe77b8f5, 0x3dbff1d2, 0x3e84e08b, 0xbe908d45, 0xbde7f0e5, 0xbd348ee4, 0x3de82d1e, 0xbe20d7dd, 0x3ea4c00f, 0x3dcb6984, 0xbe31cab2, 0xbd87e1bf, 0x3ddf2e24, 0xbe763962, 0x3ebb5a53, 0x3df1fd9a, 0x3e0b0125, 0xbe0cb716, 0xbee06a5e, 0xbe80b48c, 0xbcdfd974, 0x3de0ed8d, 0x3ea09c1a, 0xbce8ffaa, 0x3e9cf63b, 0x3e263d7c, 0x3e3cfad4, 0x3e3cf0fe, 0x3e9f286b, 0x3e23b0aa, 0xbd339c2c, 0x3dbfa510, 0x3d2f68cc, 0x3d93ef2a, 0xbdd52c04, 0xbdd2b1d6, 0x3ca3ceb3, 0xbe2929dc, 0x3d236c80, 0xbd8e61e0, 0xbcbc99d0, 0xbe26b5e2, 0x3db2d800, 0x3e5260c6, 0xbc40e8ab, 0xbe4090e4, 0xbf11e006, 0xbf782c03, 0x3e6b6210, 0xbecdbf43, 0x3e61d3f5, 0x3d386f17, 0x3e7c3871, 0x3dfb362f, 0xbe24bbe8, 0xbc3592f1, 0x3d07ebd1, 0x3b1b00d7, 0xbdd1b7c6, 0x3e756497, 0xbda8a8f7, 0xbed2c37f, 0x3b9321ef, 0x3dcd124a, 0xbde1050b, 0xbe2fd065, 0x3e829fbd, 0x3e0eebee, 0x3df8409d, 0x3eb60125, 0x3f8db3b5, 0x4011bb02, 0x3c784034, 0x3cf1e477, 0x3c37883d, 0xbdc7ccd4, 0x3cc4a6a9, 0x3cb080af, 0x3d92f34f, 0xbd8afa56, 0xbcf6a542, 0x3cb2d641, 0x3cc53c89, 0xbd3b1970, 0xbd997eac, 0x3d691832, 0xbd51fa32, 0x3d89ad96, 0xbd69174b, 0x3c719e7d, 0x3c6f944e, 0xbca53d05, 0xbc0dc59c, 0x3c4b1e4f, 0x403addb9, 0x40412539, 0x3f2877cd, 0x3db8b6bd, 0xbd82ed62, 0x3e1c02db, 0xbe19e6e9, 0x3b3a9389, 0xbe882491, 0xbdad7b30, 0xbd85be7e, 0xbea4a16f, 0xbef6f841, 0x3f410bcc, 0x3e4ac151, 0xbf10ffae, 0xbedd84fb, 0xbd4a2b5c, 0xbe1f0aac, 0xbd1150cc, 0x3d00af06, 0x3e8dd1eb, 0x3e2f3768, 0x3e2d5eae, 0x3e737c48, 0xbe53fa09, 0x3d824c89, 0x3da74bf7, 0x3d110e7d, 0xbd6d6310, 0x3c1bf8dc, 0xbc4c3849, 0xbcac75a5, 0x3ca89574, 0x3d347884, 0x3b17f926, 0xbc0375a8, 0x3c47abdc, 0x3c04be5d, 0x3b263dfa, 0x3b243953, 0xbca4c94a, 0x3f1acbd9, 0x3f2fd690, 0x3ec8cbda, 0x3f0f62a2, 0x3ebaa31c, 0x3e932138, 0x3f2ed38e, 0x3ec978b0, 0x3ef31056, 0x3f176834, 0x3f0166c4, 0x3ea4532e, 0xbeae8c7e, 0xbedfb86d, 0xbecb021b, 0xbe2dd922, 0x3e8b7aa3, 0x3f5f8836, 0x3ef9a43c, 0xbecc3e5f, 0x3ea31620, 0x3ea93e87, 0x3e9af2ae, 0xbe9c6b87, 0xbeefe665, 0xbe426512, 0x3e52c9f1, 0xbe949c42, 0xbd5bcf5c, 0xbcebd221, 0x3c1f6d1a, 0xbeda575c, 0x3e1ab5ed, 0x3b2274f6, 0x3d91a4c3, 0xbd0d3b09, 0xbce86ead, 0xbd5c759d, 0x3dbd3c6f, 0x3d969508, 0x3c11798e, 0xbd1fa960, 0x3d3cd5df, 0xbcfb9f61, 0x3c05e60a, 0xbc72e960, 0x3b82c182, 0x3cecbf5c, 0x3c1dd2f9, 0x3c39f9e8, 0x3a552bc2, 0xbbe705f5, 0x3e3c6773, 0x3e965823, 0xbf0984f8, 0xc04d89f3, 0xbf38ab91, 0x3e12e39d, 0x3dc757ff, 0xbeaee21b, 0xbf2b3ace, 0xbe4745ba, 0x3ec946df, 0x3f43b5f2, 0x3d028efa, 0x3e1d2f06, 0x3e5477e7, 0x3e8191ac, 0x3ef01412, 0x3e9b67ab, 0x3e79f111, 0x3e831a15, 0x3f01420c, 0x3e4b6f49, 0x3eb2d859, 0x3d998d16, 0x3e128298, 0x3ecd5f25, 0x3ddfdf9e, 0xbf15bb91, 0x3e7cab31, 0xbced88e8, 0xbdefb10e, 0x3e1a5225, 0xbe3a34c9, 0x3e16d773, 0xbd1af3e2, 0x3d7708fd, 0xbe5e5d80, 0xbd8f48bd, 0xbd1b42f1, 0x3d29da0e, 0xbe0be798, 0xbd9e8a24, 0x3c8b2618, 0x3b3569a6, 0xbd36f6db, 0xbd103fe6, 0x3b56611d, 0xbb0d714e, 0xbc5810fd, 0x3cec588c, 0xbb87440d, 0x40908efb, 0x3eb44112, 0xbe2d381d, 0x3de346dc, 0x3e7d253d, 0xbdcf3aaa, 0xbe0e2d63, 0xbb32139b, 0x3d145785, 0xbe3d0c36, 0xbeabf4ff, 0xbea1d694, 0x3f02b75e, 0x3eaf67d9, 0xbeee1d9a, 0x3e10229e, 0x3df2fba8, 0xbd9af30a, 0xbd0c4bad, 0xbdfa6a0b, 0x3e81ebb4, 0xbda792b5, 0x3bf1d045, 0xbf09358b, 0xbf3b25e2, 0xbe241445, 0x3d73c322, 0x3ac05796, 0x3d89c2e7, 0xbdaae3bb, 0x3cb90bb0, 0x3bebb6e9, 0xbc82b14c, 0xbbb88e05, 0x3c534913, 0xbc80c3a5, 0x3c403680, 0xbc81b6db, 0x3c517eaa, 0x3d7d6208, 0xbd929d08, 0x3c27d69d, 0x3bbd666c, 0x3c8bf6ec, 0x3c362063, 0x3a310f64, 0xbb4e6f58, 0x3d3c197f, 0xbff1e2e0, 0xbe45a203, 0x3e01f039, 0x3d871fd8, 0xbe100dba, 0xbef84710, 0xbd04de06, 0x3e868420, 0xbe927592, 0xbdfdab27, 0x3d93e52b, 0x3ceeb26e, 0xbddefa67, 0xbebb1a8e, 0x3d5cc179, 0x3ecfe724, 0xbec82412, 0xbf995346, 0x3d5582e0, 0x3f8081d7, 0x3e80d3a0, 0xbf1fff56, 0xbec00f2f, 0xbf1157ec, 0x3f4c34ae, 0x3ddca3e9, 0x3d4bea67, 0x3aebab10, 0x3e6428df, 0x3d97d44c, 0x3e6ff630, 0x3d317b4f, 0x3dbb3ec9, 0xbc109d21, 0xbdcce70b, 0x3d63b1a3, 0xbe45d240, 0x3d06acce, 0x3e6f1362, 0xbc1619e3, 0xbdd1f8d9, 0xbe4a0eae, 0x3c552bce, 0xbf068d88, 0xbe85f40c, 0xbe99f1d7, 0xbdb8254e, 0x3d15a4dd, 0x4086e6f1, 0x3ea94065, 0xbdc95ffc, 0xbdee65ea, 0xbdd330a0, 0xbc4aa7cc, 0xbe54a6e9, 0x3e095dd4, 0x3dd5564d, 0xbd42d77d, 0xbeac4c10, 0xbe3446f2, 0x3e19a237, 0x3dcfab57, 0xbd806ba7, 0xbdd1e5b8, 0x3d8e2d30, 0xbe920c36, 0xbddabff0, 0x3ea7f84a, 0x3e90e781, 0x3de026aa, 0xbf26bad2, 0xbf271c54, 0xbe024da0, 0xbe508360, 0xbe86117b, 0xbc4c5950, 0x3c325c3c, 0xbd060295, 0x3e15a8b6, 0xbdd93c46, 0xbc9dcd90, 0x3d55887f, 0xbd313ca3, 0x3baef4a0, 0x3de2d581, 0xbdaf5ffd, 0xbcdfb660, 0xbc6d9fb2, 0x3c046360, 0x3c4ee93b, 0x3c18b8b1, 0xbc636afc, 0xbc84cba7, 0xbc8ca746, 0xbb44f1a7, 0x3da636cc, 0xbfbae90f, 0xbf2483eb, 0x3f00c2de, 0x3ef4d2e8, 0xbec3f9b3, 0x3edb78d3, 0x3ece0cb3, 0xbcc8bd92, 0xbe70277d, 0xbef6254e, 0xbec1da7f, 0xbdaafc68, 0xbeec3ffe, 0xbdddc21e, 0xbf49fd72, 0xbf0f9967, 0x3ee2b97a, 0xbe90bf17, 0xbe872af7, 0x3daebbb2, 0xbe037475, 0xbf9c0a37, 0xbf84466f, 0xbe950c4d, 0x3eb2be89, 0x3d44e71b, 0x3dab1dd8, 0xbd6e7549, 0x3c984633, 0x3cb6da5e, 0x3c94f0d4, 0xbc55e13e, 0xbbcebb8c, 0xba93cdea, 0x3d211500, 0xbce4e96b, 0x3cafc166, 0x3cb4909d, 0x3d1cb1d3, 0x3c450f9d, 0x3ca02e21, 0xbb4fa52f, 0x3d1e2253, 0xbbd81d66, 0xbaef4862, 0x3c8ea235, 0x3e7474fd, 0xbe87563c, 0xc02df69a, 0xbee89204, 0x3f194d27, 0xbdd6171f, 0xbb03e9ff, 0xbf2a57e9, 0x3d5cf337, 0xbd8c9543, 0x3d841135, 0xbec7d219, 0x3ec0c1ca, 0x3ea12f24, 0xbeeed35c, 0xbf52073f, 0x3eb03d01, 0x3f56e62c, 0x3e8524d6, 0xbf040700, 0xbe145903, 0x3f0d2b2a, 0x3dcf12d8, 0x3daac1ed, 0xbe8dcf73, 0xbec4a507, 0xbe8e70c8, 0x3cc61afa, 0xbd247153, 0x3bed5969, 0x3d9328c1, 0xbd9bb266, 0xbca89637, 0x3d04f1b0, 0x3d0189f1, 0x3c89fbfd, 0xbba45699, 0xbcd2e675, 0x3cbe9a6f, 0x3dd21609, 0xbda5ba04, 0x3da72222, 0xbce72c10, 0x3d8980d1, 0xbca6bbc7, 0xbc8e791a, 0x3b0da6f5, 0x3d05185e, 0x401c1553, 0x40269ca6, 0x4028adec, 0x3f48ba87, 0x3e5548f7, 0x3e2599f4, 0x3df6cf1d, 0x3d920adb, 0x3f3f7999, 0xbf808cee, 0xbf46fe2d, 0xbec6ddf5, 0xbef29b67, 0xbf205e98, 0x3f24ee35, 0x3e8bb154, 0xbf256230, 0xbdf71b34, 0xbe3069f5, 0x3bf9b126, 0xbeebe1b9, 0xbd71155d, 0x3e8233a3, 0x3f09fdfe, 0x3d02c765, 0x3d9e4fd1, 0xbec3bbaf, 0x3b2e9da8, 0x3c4618eb, 0xbba74d20, 0x3c53246c, 0xbc93eaf3, 0xbc80a4f3, 0xbd3de606, 0x3c324133, 0xbbfc5a88, 0x3cd94496, 0xbc90f48d, 0x3c349d17, 0xbd3eec6f, 0xbcc5c415, 0x3c450c69, 0x3c0b5771, 0x3c6826a1, 0x3b11351b, 0x3cdfb3c6, 0xbb12c79f, 0x3ac6553c, 0xbce4229f, 0x3cd042a9, 0xc0804015, 0xbef737ca, 0x3dd7a207, 0xbd83533e, 0xbe8fc8e3, 0xbee993dd, 0x3e2a8d61, 0x3e955af4, 0x3e57111e, 0xbe9e61b6, 0xbbd8bf09, 0x3f56ef62, 0x3dcdec14, 0x3db1ae79, 0x3ed3f883, 0xbdb02d18, 0xbca40e62, 0x3dda763b, 0x3f2be68e, 0x3e8553b3, 0xbefa0b77, 0x3c8b84b1, 0x3dead222, 0x3dc5813b, 0x3ea275e7, 0x3e77a8ce, 0x3ec491fc, 0x3e7c3016, 0xbd21163c, 0xbb96c3b5, 0x3ea906c4, 0x3b16f1a4, 0x3e8d8d72, 0x3dcdf245, 0x3e371a3c, 0xbd82a33c, 0xbccff54e, 0xbdb6f761, 0x3c615ab1, 0xbdb7a165, 0x3d355aff, 0x3c4aa8b1, 0x3e86a657, 0xbe42f0e0, 0xbea316c2, 0xbe969536, 0xbf0d6ffe, 0xbf60cf50, 0xbf192f5f, 0x3eace18b, 0xbe13c4a3, 0x3e53819e, 0x3e868d95, 0x3daf4788, 0x3d601b3c, 0xbd993216, 0xbd0cb3a8, 0x3e17284c, 0xbe14f889, 0x3d4c9271, 0x3e86003b, 0xbe6e25c8, 0xbe7884b3, 0xbe7076e6, 0x3ea5bb73, 0xbda54484, 0xbcac45d8, 0x3edc9bed, 0x3f1439fc, 0x3ca838a6, 0x3ef735fe, 0x3f8c47e9, 0x4017b63d, 0x3eacd233, 0x3c6c6076, 0x3e89d139, 0x3e536627, 0xbc6a3175, 0x3e3a2459, 0x3ec00329, 0x3e34d591, 0xbccef0b2, 0xbd163cfd, 0xbd992c8e, 0x3ea7b997, 0xbb3d156c, 0x3e5610c7, 0xbda129ca, 0x3df72008, 0x3ded90bf, 0xbe289f1d, 0xbe200201, 0xbce86b8d, 0xbf052ca2, 0xbecbad17, 0xbf5c4969, 0xbf957f84, 0x3eaaf052, 0xbe2d063c, 0x3d3c654d, 0x3ed06099, 0x3e28745c, 0x3d8171ab, 0xbdab97e7, 0x3daa3b1f, 0xbe25e9d0, 0x3c2775b8, 0xbe812568, 0x3e8bf76e, 0xbd9d2efa, 0xbe55aba7, 0xbdba33da, 0x3ed44669, 0x3dc01434, 0xbee81b08, 0xbd81d0da, 0x3dc2f6d7, 0xbe5b9f9d, 0x3f1b846f, 0x3fd063db, 0x40122a8c, 0xbc542d85, 0xbd1859b0, 0x3ca80350, 0x3b289044, 0xbc056714, 0x3aa05fb9, 0x3d72319f, 0x3cdacbc9, 0xbc405288, 0xbcade14b, 0x3d429cd7, 0x3c86f932, 0x3c23feab, 0x3e82ff09, 0x3f17972e, 0x3f862177, 0x3f94ac3f, 0x3f8fb314, 0x3f9617a8, 0x3f78e961, 0x3f35f4cb, 0x3f932cce, 0x3f7acf71, 0x3f974674, 0xbe9b1d75, 0xbd2e8a2e, 0x3dac529a, 0xbe4769c3, 0x3cc47a36, 0xbe22a4f8, 0x3e451496, 0x3f0b2586, 0x3e43462d, 0x3e6e30d5, 0xbeb85618, 0xbd6363d8, 0xbca476cd, 0x3da71996, 0x3edc6080, 0x3d1d2a72, 0x3e271392, 0xbe6348d1, 0xbee7cfc5, 0xbe8ca96e, 0xbf151312, 0xbed7f9fb, 0x3dc9c89d, 0x3eaf3a93, 0xbb926775, 0x3c01f99c, 0x3c3e201f, 0x3badd263, 0x3dcb8eab, 0xbe08df29, 0x3ccdb0bc, 0x3cdbdf90, 0x3c3bd838, 0xbc057b01, 0x3df8a747, 0xbdafcd6c, 0xbcc2ed6d, 0xbcc9fb52, 0xbd6e9f8d, 0xbbf32082, 0xbcc27da1, 0xbce9ee7d, 0x3cee880c, 0x3d00085f, 0x40223972, 0x4034ca4a, 0x403fe97e, 0x403c0a1a, 0x3967b423, 0x3e5e5197, 0x3e28db92, 0x3e020a37, 0xbe1aa765, 0xbe107d10, 0xbd85693b, 0xbe0f3cc0, 0x3dfa570d, 0xbe43f5eb, 0xbf2da5a5, 0x3f1b3260, 0xbd1d63ff, 0xbeac7cbe, 0x3e0bc0c2, 0x3d9e5476, 0x3e73cc72, 0xbe98bd7a, 0xbe79060f, 0xbdb916fe, 0x3d8c8782, 0x3f1c7a68, 0xbd966149, 0xbf2dde1f, 0x3dee3fea, 0xbe10b3c4, 0xbc84d98f, 0xbd7a6d0f, 0x3d6ca5ee, 0x3c81b0ee, 0x3c95630f, 0xbcab9bfd, 0xbbf2f1b0, 0x3c7a4954, 0x3c5bb3ec, 0x3d913940, 0xbc62478a, 0xbc8306c4, 0x3d949e3b, 0xbc5208a8, 0x3c30bf66, 0xbd3f07c6, 0x3e189c9a, 0x3dab0160, 0x3ed57e0e, 0x3f0ecedb, 0x3eb7cb27, 0x3e0041d8, 0xbe81ade3, 0xbe302e97, 0xbf84beb5, 0xbf21679f, 0xbe8bb806, 0x3c08f135, 0x3f67f1dd, 0x3fa8f0ae, 0x3ef8da03, 0xbe93eba9, 0x3f6b72e8, 0x3f6acbf3, 0xbea2252f, 0xbd82072a, 0x3cee7477, 0x3ee80140, 0x3ea0de41, 0x3e182e8b, 0x3eba0d8a, 0xbd3072f0, 0xbf050094, 0xbf91cc4f, 0xbf9a4b5d, 0xbe3dc9ac, 0x3d6a966f, 0xbd2edb39, 0xbc2b2752, 0x3c1abb8c, 0x3c8874b5, 0xbd0c98d1, 0x3ca808f4, 0xbca5c8b3, 0x3cc6bc9a, 0x3c1a2fec, 0x3c645436, 0xbb370aa2, 0xbc4509c8, 0xbb863c23, 0xbbbb2579, 0x39fcd40f, 0x3a39c453, 0xbbcf7843, 0xbc537636, 0x3b57eb91, 0x3b318e20, 0x3c77405e, 0x3d4e03be, 0xc03a4095, 0xbf1e7fdc, 0x3e417309, 0x3efcdb0e, 0xbe13b8be, 0xbf195494, 0xbf217eb2, 0x3eb3b0b5, 0x3f6f3d2f, 0x3e78abf3, 0xbf321f43, 0xbf3b86f7, 0xbf643b97, 0xbb6aa4c2, 0x3eedbccc, 0x3f25b51a, 0x3e30a126, 0xbee766da, 0xbd9409b4, 0xbb475234, 0xbe370840, 0x3eb2de78, 0x3eeb0bf8, 0xbe8b6331, 0xbf85bdc2, 0xbd3539a3, 0xbe7e0822, 0xbc472cd4, 0x3e1d41a1, 0xbd0973ab, 0x3df95214, 0xbdd3f5b8, 0xbdf981b7, 0xbe9b9bff, 0x3d19ea08, 0xbe0ceae1, 0xbe17753d, 0xbd331a03, 0x3d5173a2, 0x3d76af38, 0x3c99bd17, 0x3dbf6b45, 0xbccd4dcf, 0xbd192f37, 0xbdb28bdf, 0x3cab0a0d, 0x3d9ac0bf, 0x3dd5d6e5, 0xbf623c84, 0xbf5c5cb8, 0xbea3777f, 0xbd3991fb, 0xbf35f3da, 0x3db50297, 0x3f022ce4, 0x3e5c88ec, 0xbeadcbca, 0x3b2be982, 0xbf399a63, 0xbf4f8975, 0xbe0244be, 0x3f0875ac, 0x3eede80c, 0x3e336394, 0xbe5a68ca, 0xc003968b, 0xc005151a, 0xbf881eab, 0xbf1ae17c, 0xbed50410, 0x3e8d6186, 0x3e9dafe0, 0x3ea2fc18, 0xbe35d50b, 0xbea78531, 0x3d22431f, 0xbc205c43, 0x3b8234cf, 0xbcfbce00, 0x3d0ee84b, 0x3bf2ab43, 0xbc2dd865, 0x3d1c2199, 0xbd166117, 0x3d2ead49, 0x3bf65b1f, 0x3c8b829f, 0x3b68f0ca, 0xbd131347, 0x3c2ad572, 0x3cb95939, 0xbc3b2a4f, 0x3afdffda, 0xbc4eb28b, 0xbcebb664, 0x3aa262e8, 0xc0030c2b, 0x3ef1e63d, 0xbe022500, 0xbebf4717, 0xbedfeab5, 0xbecde6e9, 0x3db7e021, 0x3dd315a5, 0xbd93efcd, 0x3caa0207, 0x3ed5c726, 0x3d51a23e, 0xbf39136a, 0xbf004a72, 0x3f07168e, 0x3e75391c, 0xbeb0b52b, 0xbfa2a340, 0x3ce07339, 0x3f1b9b0f, 0x3dad6be5, 0x3cad8383, 0xbdd8d9ae, 0xbf7c240f, 0x3de21fb3, 0x3d8e493c, 0xbe2e3c98, 0xbe6585c6, 0xbe5c4f5e, 0x3ceb33f6, 0xbe77a334, 0x3e02cd17, 0x3e48afe4, 0xbd38ee3a, 0xbde022f7, 0x3d54fb0d, 0xbda6e822, 0x3c8fccd4, 0x3d0a1fcc, 0xbe189076, 0x3d1c1228, 0x3da9e6a4, 0x3d5d7a3c, 0xbddc3257, 0xbdccfb2c, 0xbd5bd7b6, 0x3e4a5aad, 0x3e99f4d9, 0xbedbf162, 0xbf90b9b2, 0xbc9a7e8e, 0x3f5f4992, 0x3ed42073, 0x3e4143c1, 0xbe3146cc, 0x3c0cbac5, 0xbe8f1ac6, 0xbe327014, 0xbf12a890, 0xbf0bfa78, 0xbf5abf93, 0x3ebd2593, 0x3f258816, 0x3d41eb5b, 0xbfd577a5, 0xc00961a1, 0xbf9c1a05, 0xbf353f61, 0xbfaa71b2, 0xbfab637b, 0xbec45729, 0x3e9e7e70, 0x3b95cd86};
union data cn_hidden1_weight_data = {.intval = (uint32_t *) cn_hidden1_weight};
const uint32_t cn_hidden1_bias[1 * 32] = {0x3e563f31, 0x3e82cee3, 0x3eb1cd28, 0xbf5f5bda, 0x3e933c8a, 0x3ec86408, 0xbf8820b9, 0x3ea237c8, 0x3f0ad67c, 0xbeb2af5f, 0x3f17fef7, 0xbd8120e2, 0xbf64ec5e, 0xbea1b447, 0xbf5f3e7a, 0x3d68eedf, 0xbeb1362a, 0x3ef31d11, 0xbf18430f, 0x3e320d2d, 0x3edd7faa, 0xbe70ac1c, 0x3de6aa93, 0xbf8d76b9, 0xbf8ea29c, 0xbdfc5abe, 0xbab12e4a, 0xbef547f9, 0x3ec3f1d5, 0x3a944ba3, 0x3e017fca, 0x3d72e61e};
union data cn_hidden1_bias_data = {.intval = (uint32_t *) cn_hidden1_bias};
const uint32_t cn_hidden3_weight[32 * 16] = {0xbe93ca40, 0x3db02555, 0x3da89c72, 0xbdbe47b9, 0x3ecabbe6, 0xbd5e2775, 0xbe07ca5c, 0x3e2463e1, 0x3e5506cd, 0x3e265afd, 0xbe54a73e, 0xbde5eb10, 0x3f86cf5b, 0xbf8433a6, 0xbe363401, 0x3f9dc2df, 0xbf4b2760, 0x3e702592, 0xbfa35f38, 0x3e78a870, 0x3f73096b, 0xbfb07cfa, 0x3f84702f, 0xbe5191ef, 0x3f1f30ee, 0xbd7cb5a7, 0xbe4c153d, 0x3f5aaae2, 0x3fb6320f, 0x3e1006c5, 0x3e1a9070, 0x3e7ecda0, 0x3da884ad, 0x3d08783c, 0x3eedc154, 0xbc0e1d1b, 0x3f44b79e, 0x3e7d7c32, 0xbf52593e, 0x3f728303, 0x3c384851, 0xbef4e9cf, 0x3e92c7a4, 0x3bcad7f5, 0x3e54262a, 0xba1cfc7b, 0xbf4cd000, 0x3f8b48c8, 0xbc46c9ea, 0x3f0d12c7, 0x3c0acab1, 0x3dc6caa3, 0x3fd209c2, 0x3b65b982, 0x3ff89402, 0x3bf6ed2c, 0xbef1715d, 0x3c9c17cc, 0x3c1be1b0, 0xbdeeccb7, 0x401d8dbb, 0x3d4d8688, 0x3edb77da, 0x3e38640c, 0xbe8dd243, 0xbf9e7892, 0xbffd7a43, 0x3f7e2d21, 0xbf83756b, 0xbfbb482c, 0x3eb04bd5, 0x3c9cf2c2, 0xbe95b898, 0x3f0a172d, 0xbc1ab85f, 0xbd0d6fb4, 0x3e50d1df, 0x3f2c2652, 0xbe9edab7, 0xbf91ee4c, 0xbe54c56d, 0x3e1e8e14, 0xbe9455c3, 0xbf87f4ce, 0xbd9e2276, 0xbd5d67d5, 0xbf7f3d50, 0x3ef1c06f, 0x3d9e24e4, 0xbd3302bf, 0xbcf3f4f3, 0x3f035290, 0xbf7dd57c, 0xbf352b4a, 0xbf73aae2, 0xbf6f5e2e, 0xbf213463, 0xbdbb62c3, 0xbc08f469, 0x3e831639, 0x3dc7bc48, 0x3e5f5a1c, 0x3f66e9c3, 0x3cfe4fff, 0x3e23cac4, 0x3ff65802, 0xbe5a39cc, 0xbd006667, 0x3f47abe1, 0xbd34d9c3, 0xbed3e7cf, 0xbe41a1c4, 0x3d8962a8, 0x3e20104e, 0x3f604b26, 0xbdecf9fa, 0x3d77dcee, 0xbd3250ff, 0x3eacbd72, 0x3ebb772c, 0x3f732aed, 0x3ecb06e9, 0xbbe7fa93, 0x3f90c39f, 0xbdeb92e9, 0xbf0ae09b, 0x3e3e363c, 0xbf46faa8, 0xbee89448, 0xbe0194d3, 0x3ce114d2, 0x3edf583d, 0x3e31ad42, 0x3eb26cb9, 0x3f5c56b7, 0x3e0bdd99, 0x3e81a0a5, 0x3f86794f, 0xbddff609, 0x3eb68c0e, 0x3f943ab8, 0xbd6e8858, 0xbe3de8ab, 0xbb83597b, 0xbe1ca47a, 0x3e1f3c2b, 0xbf2340eb, 0xbe2cda79, 0x3d393188, 0xbd2f0821, 0xbc097f9d, 0x3e06cd97, 0x3f769f05, 0xbcedbce6, 0xbca18027, 0x3e993d13, 0xbe1ecbf2, 0xbe47bef5, 0x3e12ebab, 0xbf65f9bd, 0xbf8c224e, 0x3e68d286, 0x3e685fd7, 0xbe8849d1, 0xbe28715f, 0xbccf30c9, 0x3fd3e84f, 0xbdc6f320, 0x3e754950, 0xc024cb74, 0xbf1fcc95, 0xbda4ef0c, 0x3f800c99, 0xbd92f795, 0x3f564878, 0x3f184405, 0xbe499862, 0x3db9668b, 0x3f4bb3e1, 0x3c858ebe, 0xbd8d524e, 0x3e14d4fe, 0x3de3a51a, 0x3f3d3a64, 0x3fb323dc, 0xbdd7c81e, 0x3e224992, 0x3f4ccb73, 0xbcdd3843, 0xbf48dcf9, 0xbda6fd3d, 0xbfb2c57c, 0x3eaf2ba7, 0x3ca88870, 0x3de7e8fb, 0xbfaac6c0, 0x3e41f357, 0x3decb319, 0xc0098742, 0x3e26c77b, 0x3e6f6f4d, 0x3e987131, 0x3edb1822, 0xc01c2aae, 0xbfdae6ad, 0xbf83a6f4, 0xbf52035b, 0x3df25ee3, 0xbfce644c, 0x3ea89c24, 0xbfb54ef6, 0x3be4a07a, 0x3ddb1a4b, 0xbfa70afd, 0x3dac0e6c, 0xc0157038, 0xbfe7ff3e, 0xc026e758, 0xbff9b1c0, 0xbde65bc8, 0x3c82a6ef, 0x3d81217a, 0x3e6026ec, 0x3e49f33f, 0x3ee7cc5d, 0x3e30aaa2, 0x3e263269, 0xbf87eae7, 0x3e6015e1, 0x3e8289a9, 0xc013e355, 0x3e70d86f, 0x3e6c8b85, 0x3eee93c3, 0x3f4ca4b8, 0xbfa95a18, 0xbfe44434, 0xbfb9a30c, 0xbf950c2e, 0xbd58b1cf, 0xbfc33b0b, 0x3dfdc31b, 0xbfd590aa, 0x3d891e3d, 0x3e8c6656, 0xbfdfff71, 0x3e162918, 0xc0172f71, 0xbfd73ad4, 0xc010a4f4, 0xbfbecfb2, 0xbe290e1a, 0xbd237241, 0x3e46d531, 0x3e591cc9, 0x3e2d659d, 0x3e9ef0de, 0x3bd12e44, 0x3ddc63af, 0xbfb021dc, 0x3de956fb, 0x3e68f104, 0xc00a184a, 0x3d63bc98, 0x3e26d150, 0x3e2e6fdb, 0x3f0602fd, 0xc0266c90, 0xbfd5ab79, 0xbfa9dfab, 0xbf92e709, 0xbc27622c, 0xbfc6bc27, 0x3dba9aa4, 0xbfadd0ff, 0x3cd8d99b, 0x3ce33151, 0xc003fc85, 0x3e039d36, 0xc00e3bcd, 0xbfdd5d51, 0xc030482d, 0xbfe53315, 0xbe887218, 0xbe00811c, 0xbcedec14, 0x3e2caf46, 0x3db8715d, 0xbf6694aa, 0xbe958b06, 0x3c511638, 0x3eae3f5a, 0x3e8a7de4, 0x3e21e67f, 0x3fb9751d, 0xbbd3e510, 0x3e81d810, 0xbe9b6324, 0xbf28ebee, 0x3ccf96a0, 0x3fcd9a1c, 0x3d572956, 0x3f0b906e, 0x3d90175a, 0x3f748e21, 0x3e3327e6, 0x3f091972, 0xbdb7b647, 0x3da2c1d6, 0x3dab4a15, 0x3e2c7915, 0x3f2da3eb, 0x3f762bf9, 0x3c55f857, 0xbb389299, 0x3fc2a190, 0x3d07f745, 0xbeacdf17, 0x3e7c96f7, 0xbf8cbee0, 0xbd76a231, 0x3d4fbedb, 0x3e0e130a, 0x3c5bdb6f, 0x3f4c4f7a, 0x3e884ff8, 0xbae5a16c, 0x3f31f916, 0x3e015979, 0xbf280114, 0x3e59fe22, 0xbb48b4b8, 0x3e580e13, 0xbcabae81, 0xbf3c0e87, 0x3f3f4c5c, 0xbd03068c, 0x3e9cae2e, 0xbd12e8a6, 0x3d8d9afa, 0x3fc3f36a, 0xbb97421c, 0x3fee6d50, 0x3cee4c05, 0x3ece356d, 0x3b8add1a, 0xbc21946c, 0xbe1ac067, 0x401df7de, 0x3e469e38, 0x3dcc9bc8, 0xbd532feb, 0xbf8b7955, 0xbfeea254, 0xc03295c2, 0x3e6d5e45, 0xbf81abc5, 0xc007e9d4, 0x3e1725e6, 0xbf99c2c8, 0xbf8b85a4, 0x3efec2e0, 0xbf244d5d, 0x3b592a12, 0x3dd2cf05, 0xbdcdb12d, 0xbc54f02b, 0xc01a6853, 0x3e1df888, 0xbf77efe7, 0x3e9da401, 0xbfd7871e, 0xbf54bf59, 0x3d3dec2a, 0xbf7f5bb5, 0x3da19ab5, 0xbd364e1d, 0xbc8a9cf3, 0x3cc8273a, 0x3f97a1e6, 0xbfcd396e, 0xbf323b0c, 0xc0059573, 0xbfbb1558, 0xbc0eb4c7, 0xbd550383, 0x3cafda98, 0x3c4cc5e0, 0x3f271889, 0x3e993cd7, 0x3da96805, 0x3f1c570c, 0x3e02e722, 0xbd4569e0, 0x3e0ba741, 0xbbd7e907, 0x3df92ff4, 0xbc3ca899, 0xbf2db6cf, 0x3f4a655f, 0xbcb58e3c, 0x3ec0ed26, 0xbcdbd124, 0x3eaf1be5, 0x3fbf1055, 0xbbc39051, 0x401354a3, 0x3ca5407d, 0x3f0d0eea, 0x3b73f72f, 0x3a9c77ba, 0xbd9c238d, 0x40235327, 0x3e54bbc7, 0x3e863b1f, 0xbd8cc4d9, 0x3c91807d, 0x3e20d08f, 0x3d73e7b2, 0x3c9e7943, 0x3f39535b, 0x3e8aff1f, 0xbd53801a, 0x3f2ef55a, 0x3db6534b, 0xbeb1ad04, 0x3e77bbfa, 0xbac95caa, 0x3e5de90a, 0xbbd88680, 0xbf446240, 0x3f6c5566, 0xbcfe7437, 0x3e90da60, 0xbd18c6a7, 0x3e558d5f, 0x3fb20f0a, 0xbc45531a, 0x40095f76, 0xbb1fd7ea, 0x3ee8f72d, 0xbba4cac3, 0xbc276107, 0xbe427e07, 0x40198341, 0x3e399eb5, 0x3e07df25, 0xbea37ef3, 0x3dba69c4, 0x3ccf1d73, 0x3d3aabb4, 0xc00e5c9c, 0xbd74cac0, 0x3e1f9812, 0xc0499c78, 0x3e967c52, 0x3e13891e, 0xbec8e2ed, 0x3f2aa0d7, 0xba384f32, 0xc003f637, 0xbd3005e2, 0xbfb06b89, 0x3db8567a, 0xbe648a66, 0x3e2e87d1, 0xbf483620, 0xbdd7b06e, 0xbd48c5a0, 0xbd136eba, 0x3dc90fae, 0xc0384f60, 0xc04040b3, 0xbc8063d4, 0xbd0803be, 0xbe194990, 0xbde079ed, 0xbd43cb83, 0x3ea0f990, 0x3df57ae7, 0x3eae5464, 0xbdc4510d, 0xbebd1f74, 0x3ee0f9dd, 0x3e674bd0, 0xbe129385, 0x3fb3d10a, 0x3dc54a46, 0xbe0515d0, 0xbffaf062, 0xbe8ea4d8, 0x3d20d964, 0x3fb39741, 0x3e209946, 0x3ef6ded2, 0x3edeab5c, 0x3ec6ed75, 0x3d6ae391, 0x3f80b8e3, 0xbe3a1e6d, 0x3e1b11ba, 0x3dbf5338, 0x3e7b7986, 0x3f76a3be, 0x3fb0dc3c, 0x3c2f53a8, 0x3d8af85a, 0x3fe71265, 0xbe15f62c, 0x3ec88671, 0xbd9c16a2, 0x3e831e77};
union data cn_hidden3_weight_data = {.intval = (uint32_t *) cn_hidden3_weight};
const uint32_t cn_hidden3_bias[1 * 16] = {0xbcce8bb5, 0x3c5c5d2f, 0xbe9a2e85, 0xbf5d36ad, 0xbf498370, 0xbe68ccbf, 0x3b15cc4a, 0x3cdea757, 0x3c985fe0, 0xbf8299c8, 0x3cfbd864, 0x3ecbc54f, 0x3c9e323a, 0x3d07c9f5, 0x3ebb6699, 0xbe8fe3cb};
union data cn_hidden3_bias_data = {.intval = (uint32_t *) cn_hidden3_bias};
const uint32_t cn_output_weight[16 * 24] = {0xbe63545a, 0xbc8d2fa6, 0xbf8f2be1, 0xbefa2205, 0xbec3d4b1, 0xbeb054cc, 0xc002d6e6, 0xbfae2255, 0xc02ec3c0, 0xbfb21c4b, 0xbd154ba2, 0xbf6b43f7, 0xbd48a51b, 0xbdc90a0d, 0x3e91979e, 0xbea6a505, 0xc024f6d4, 0x3e0d1aa4, 0xbf173fdc, 0xbf80ba9f, 0xbf933fb2, 0xbf3890dd, 0xc05ff4bf, 0xc0351180, 0xc075c371, 0xbf978140, 0x3d1304d9, 0xbf33fe42, 0xbcac24aa, 0x3e1676f3, 0x3f12ceb8, 0xc0381e2e, 0xbf86c364, 0xbfd7a4c2, 0xbf117059, 0xbf0427b1, 0x3e6498eb, 0xbfc26440, 0xbef53758, 0xbf22428b, 0xbf428285, 0xbfa8a057, 0xbf9f7a81, 0x3d80df8a, 0xbfa8c650, 0xbfb16e92, 0xbf9c60ab, 0xc00569ee, 0xc02eb3ae, 0x3e0e7585, 0xbec08657, 0xbf0c014c, 0xbf40d4b7, 0xbf5c306b, 0xc04fbcac, 0xc01ba10b, 0xc06d063a, 0xbfbdfd29, 0x3e5feff5, 0xbee57150, 0xbd8f9511, 0x3e19c90e, 0x3f70a7fd, 0xc030084b, 0xc02ed405, 0x3dbd60b6, 0xbf1bf2d4, 0xbfa2b11c, 0xbf04f90b, 0xbf311326, 0xc037bdf8, 0xc0163bae, 0xc055f482, 0xbf7058d0, 0xbd146d3a, 0xbf28a941, 0xbd4476a1, 0x3d75cc42, 0x3f6a8af8, 0xc0290bdc, 0xbfa19f47, 0xc02619a6, 0x3e45958c, 0x3ec650cb, 0xbde933f4, 0x3f34c2e1, 0xbce4580b, 0xbd2b2e78, 0xbbacad7c, 0xbfc1d3b8, 0xc03273e5, 0x3fac416a, 0xc03f2e80, 0xc04994d2, 0xbfadc17c, 0xbcfb77a5, 0xc01b202c, 0x3d84b4a7, 0xbf5c44db, 0xbf64d0f4, 0xbf2a73c3, 0xbf7425d3, 0xc0259d47, 0xc00f7602, 0xc030644c, 0xbfa30655, 0x3df1e67b, 0xbf24f908, 0xbdbc0898, 0xbd12e4b5, 0x3f460b95, 0xc025eba6, 0xc0213d9e, 0x3e21a5d4, 0xbf33e341, 0xbf425194, 0xbf6834c9, 0xbf421aeb, 0xc00e6373, 0xbfd2c156, 0xc0434ff6, 0xbf62ae24, 0x3e0a35be, 0x3a5a6802, 0xbccf928a, 0x3d5daff5, 0x3f9038ba, 0xc003f414, 0xbf522ea8, 0xbfacfc7b, 0xbe3486ea, 0xbebfeaea, 0xbe7ee95f, 0xbf8a654e, 0xbf5ffdcb, 0xbf706a2e, 0xbf67a6d0, 0xbfba2ab2, 0xbfa018ae, 0xbea8a835, 0xbf83df3a, 0xbf8106f9, 0xbf69a598, 0xc0003d48, 0xbf01ae8c, 0xbfec7441, 0xbf103716, 0xbda24af0, 0xbecf4371, 0xbfd94234, 0xbda37c2d, 0xbefad334, 0xbd3fba8b, 0xbf553446, 0xbfe6861e, 0x3d5cd628, 0xbff620ae, 0xbfd67ce1, 0xbf7d168b, 0xbf7e5b24, 0xc0217b54, 0x3dfc4d20, 0xbf12898a, 0xbef2840f, 0xbf180a5f, 0xbfb3b10f, 0xc00b2963, 0xbff1e135, 0xc01f8357, 0xbf90be95, 0x3e69922b, 0xbe73ef70, 0xbe003678, 0x3ddb71e8, 0x3f536d67, 0xc0365bf5, 0xbc47ee17, 0x3cd9ba3c, 0x3fa109e1, 0x3f906181, 0x3f0db96d, 0x3f0f61d0, 0xc05f5871, 0xbff17434, 0xc09cc2a8, 0x3f82f727, 0xbb8d194c, 0x3fb55a17, 0xbd0770be, 0x3a5f08aa, 0x3dd29114, 0x3ede370d, 0xbf9eb1bc, 0xbfe1af5b, 0xbf2ef0e0, 0x3eff891d, 0x3e901f0d, 0xbfa7455c, 0xbf205c47, 0xbf171337, 0xbf50ef89, 0xbfab52d7, 0xbfbeb407, 0xbd6026e9, 0xbfde6e1b, 0xbfb88563, 0xbfa54e28, 0xbfefe3fd, 0xbf7fae50, 0xbfd87495, 0xbf0a74f5, 0x3e205096, 0xbf06b3e9, 0xbfc92ea8, 0xbea8940a, 0xbeb2c0ce, 0xbf07597b, 0xbfae6317, 0xbfab026d, 0xbe4f7744, 0xbfaa1766, 0xbf90a259, 0xbf84c015, 0xc00953fa, 0xbf6fd5db, 0xc029b839, 0xbf65b0df, 0x3f5f79da, 0xbe8986e3, 0xc024f4e9, 0xbda0b4ba, 0xbd43ee61, 0x3eeefb1a, 0xbf5279e1, 0xc0427a83, 0xbf350af6, 0xc04a2d9a, 0xc0452b40, 0xc00a006a, 0xbf751726, 0x3d4ec150, 0x3cef92be, 0xbe4c99b2, 0x3edf11d8, 0x3f21c2cf, 0x3ed94355, 0xbe388232, 0xbb9f85aa, 0xbec2e121, 0x3e400869, 0x3c978e58, 0xbfa5f3dc, 0x3c3e10bb, 0x3d12d692, 0xbeeff939, 0xbc506e07, 0xc05117ba, 0x3e8b8042, 0xbf24edb9, 0xbf152dbf, 0xbf54d9e5, 0xbf633fe9, 0xc033391e, 0xc01f8361, 0xc04cb1cd, 0xbf9cdc2a, 0x3e75f1fb, 0xbece6af5, 0x3e372889, 0x3deece17, 0x3f736d54, 0xc0337474, 0xbf1c16e0, 0xc0036c0b, 0xbea7b2dd, 0x3d911895, 0xbf042c0d, 0xbfe12f70, 0xbf084a77, 0xbee79153, 0xbed4f94a, 0xbfaa3f04, 0xbfde1765, 0xbe4b8503, 0xc014956c, 0xbff380d7, 0xbfe7434c, 0xbfad15c1, 0xbf82311b, 0xbfa6074b, 0xbf40a8d8, 0xbea54aac, 0x3d4ffe59, 0xbfb410fe, 0xbee7a1f0, 0xbee939fd, 0xbf35f849, 0xbf71204c, 0xbf937a98, 0xbe8253d5, 0xbf92c325, 0xbf8b6d02, 0xbf7ba5c1, 0xbfc5e3bf, 0xc001d5d7, 0xbc178e61, 0xbf7e5b8a, 0xbf4ab368, 0xbec86838, 0xbfa6a314, 0xbfc7462c, 0xbfa41b3c, 0xbfdfa106, 0xbfbb9592, 0x3c3c7fb3, 0xbe950b4b, 0xbd50526c, 0xbd2f0bcc, 0x3e27719a, 0xc058a0cb, 0xc02531ea, 0x3ddbf234, 0xbf7f87f0, 0xbf0e6611, 0xbf15b922, 0xbf7f221b, 0xc01c2bcb, 0xbffe5f7e, 0xc035676f, 0xbf6331c4, 0x3b4a7b18, 0xbf33bb52, 0xbe07ab4d, 0x3d257e7d, 0x3f3ecd27, 0xc016e12d, 0xc01c5015, 0x3dc40eea, 0xbf85fe63, 0xbf9d0d93, 0xbf391053, 0x3e80b6ec, 0xc06290f1, 0xc02c679c, 0xc089d681, 0xbf4fe325, 0xbd26fc32, 0xbeefb51d, 0xbd4f61d2, 0x3b9e67ac, 0x3f4da646, 0xbf717a05, 0xbf881e5b, 0xc015e3df, 0xbfafd8ed, 0x3f8d9661, 0x3f141730, 0xc00b2677, 0x3ca8fd5d, 0xbd6820d4, 0x3eea4bed, 0xbf82d1eb, 0xc033cfff, 0xbec64cc1, 0xc02d4bfd, 0xc034b098, 0xc0003bf3, 0xbfb3293e, 0xc046945e, 0xbe990905, 0x3e46dc69, 0x39cd8cf4, 0x3cd257c6, 0xbd084a51, 0xc07f45ea, 0xc0808525, 0xc046a15d, 0x3d264e08, 0xbee898aa, 0x3e5ed357, 0xbeeb48e3, 0xbefbb36e, 0xbe975bd6, 0xbc07ea50};
union data cn_output_weight_data = {.intval = (uint32_t *) cn_output_weight};
const uint32_t cn_output_bias[1 * 24] = {0x3e70baa9, 0xbfa4c941, 0xc06c1ab0, 0xbfa19e2d, 0xbfa1851a, 0xbf3c3ed6, 0xbfca9584, 0xbf936e0a, 0xc067909f, 0xc03ce6cf, 0xbfac66b4, 0xbf114010, 0xc04f4d4b, 0xc05f27b3, 0xbfacf5d1, 0xbfe8ebd1, 0xbfa0150d, 0xc0474e47, 0xc0530171, 0xc0170b24, 0xbfb769f2, 0xbe856abd, 0xbfbf1d3f, 0xbfb463a9};
union data cn_output_bias_data = {.intval = (uint32_t *) cn_output_bias};

// ATTN_PC
const float32_t attn_hidden_weight[24 * 32] = {0xbe8a2f63, 0x3e1a022d, 0xbdb839fe, 0x3e28edfe, 0xbc6f8f5f, 0x3e681ea3, 0xbe30b346, 0x3e8e95b1, 0x3d09408a, 0x3e707827, 0xbe10b842, 0xbe606548, 0x3e4c2901, 0xbe5d39ff, 0x3e75ab95, 0xbe7323a3, 0xbc744f59, 0xbd9d1672, 0x3d7527e2, 0xbebce716, 0x3ca7ffef, 0x3ea44b2b, 0x3f03d441, 0xbee5d008, 0xbcbc634a, 0xbe4cab40, 0xbea73c74, 0x3d62111f, 0x3e899f4c, 0xbe276474, 0xbcec0633, 0x3f0ea309, 0x3d6bfc2d, 0xbdb90f48, 0x3e06f46c, 0x3da949a6, 0xbdd9d70d, 0x3e91b8b0, 0x3e41ef4e, 0xbd93a951, 0x3e0e4d32, 0xbcb70ca1, 0xbdb5deaa, 0xbe95e3ce, 0xbeb3ecb0, 0x3ead6436, 0x3ea456be, 0xbdb4ef0c, 0x3e81d658, 0xbde9746c, 0xbe481956, 0x3e9b7f86, 0xbe1de30e, 0xbee16a1b, 0x3e758563, 0x3eb1afdf, 0x3eb86048, 0x3d204209, 0x3d98db9b, 0xbe02fd36, 0xbc3f4acd, 0xbc90872f, 0x3e6fb449, 0x3c0d1b4b, 0xbe5624d1, 0x3e9fe829, 0x3e029c17, 0xbde8ccab, 0x3d14ea45, 0xbe78777c, 0x3ea3ac57, 0xbf2b7e0c, 0xbef8d256, 0xbdcb1e14, 0x3d15633e, 0x3eae46e9, 0x3e8e7e83, 0x3eb4b375, 0xbcd10d6f, 0xbe278edc, 0x3dbd967f, 0xbea68c7c, 0x3dba377b, 0xbe807786, 0xbdd22816, 0x3d575ca4, 0x3d2c0288, 0xbddbcbd9, 0x3d83a903, 0x3e82ad6f, 0x3e79c4bd, 0x3ec1d8c0, 0x3ebff48b, 0xbed51335, 0xbe3d2365, 0xbeba526c, 0x3e330a27, 0xbe8b07bf, 0x3eb0024c, 0x3d88e6f8, 0x3c811ef0, 0x3e85c3df, 0xbe562d85, 0xbde637f4, 0x3d3810d2, 0xbc8e8070, 0x3e7132ba, 0xbd58d0d6, 0xbd47c7e7, 0x3ec634d3, 0x3dd08936, 0x3e99a52d, 0x3dfce28d, 0x3e50aa72, 0x3bb45796, 0xbe79f27e, 0xbe911912, 0x3d82f3af, 0xbdf761cf, 0xbe75a3df, 0x3e215375, 0xbe80fd0d, 0x3da42207, 0x3ea5cb1a, 0x3e2d4776, 0x3e79b713, 0xbce21336, 0x3d159142, 0xbe71f128, 0xbdacb4ec, 0x3d909e08, 0xbd600083, 0xbd8e4720, 0xbe6bdbbf, 0x3da1e5f9, 0x3d66036f, 0x3e16389e, 0x3eb522a0, 0x3eb54c29, 0x3e970374, 0x3dcbc219, 0xbc5bf463, 0x3df2ed06, 0xbdf7e044, 0xbebf37d1, 0xbeb774cc, 0xbf19b0c2, 0xbef8c76b, 0xbed5b2b0, 0xbda614ff, 0xbdfb2fab, 0x39fdb00d, 0x3d2823b1, 0x3ea09b6d, 0xbe0fee23, 0x3e717f17, 0x3df7b9d0, 0xbe38b26d, 0xbf0f59e5, 0xbe87bbc5, 0xbebeca88, 0xbf016f41, 0xbcf6a369, 0xbd278a51, 0x3e7e2ce3, 0xbe661237, 0xbe86e232, 0x3ea40e58, 0xbebbc19a, 0x3d23dab2, 0x3d4abd2a, 0xbdf795ce, 0x3ecaaeb6, 0x3e8e9bfe, 0xbcaeedbc, 0xbea0dcc3, 0xbdf202ab, 0x3e5fbfdb, 0x3e017cb9, 0xbea12e03, 0xbdfc9ec7, 0x3db11d4c, 0x3e4205b1, 0xbd131cdc, 0xbec0a9da, 0xbe81abab, 0xbeba3f4e, 0x3ef7cb3a, 0x3edfea23, 0xbe84bfa7, 0xbf15668a, 0x3e91ea08, 0xbea53134, 0x3dbbdf12, 0x3e64552f, 0xbea2708b, 0x3d335836, 0x3e99f4f0, 0xbd813b16, 0x3e009469, 0x3dd56b8d, 0xbe1fdddc, 0x3ea5cd97, 0xbda86305, 0xbe243752, 0x3e2a16f4, 0xbe13b463, 0x3d3f111f, 0x3e04e8b4, 0x3e62b580, 0xbe39826c, 0x3de83df5, 0xbccab573, 0xbeae8cf5, 0xbdece43d, 0x3ea0be4f, 0x3e398099, 0x3e9084f6, 0xbdc8f13a, 0xbcdf712d, 0x3e10f5d2, 0xbe93f6da, 0xbe652e89, 0x3d814097, 0x3d9dd2ee, 0x3e083e1e, 0x3e8db8c3, 0x3e89e4e6, 0xbe8cbfdb, 0xbe797f84, 0xbd8dce4d, 0xbdff1e8c, 0xbe7ca656, 0xbe404a88, 0x3e509bed, 0x3ecfbd01, 0x3ea99ca5, 0xbe053cb5, 0x3eadc1e9, 0xbe5aed92, 0x3d5d8d51, 0x3deb2dff, 0xbe34724e, 0x3ea36424, 0xbd8a2a76, 0xbe005bbb, 0x3e59cb97, 0x3e61f375, 0x3d9cc2f5, 0x3e66018d, 0xbe4255b1, 0x3ea33f59, 0x3e087184, 0xbe5d463b, 0x3d6e9a85, 0x3e919137, 0xbea5cb0b, 0x3dc880fa, 0xbecb0bfe, 0xbef5979c, 0xbe319ce1, 0xbcfd2798, 0xbe5de116, 0x3e3914ac, 0xbe60cd8d, 0xbdae84ab, 0x3e17e3da, 0xbe974531, 0xbe4032e2, 0xbdcbc3f1, 0x3d881e6c, 0x3e7a7a66, 0x3e07b2f4, 0x3e6a1fa0, 0xbd81a48e, 0x3ea85c20, 0x3e50a450, 0x3e46b5d0, 0xbd93cee3, 0xbea17ad2, 0x3e7a37be, 0x3eba4b9a, 0x3ec265f1, 0x3e8a35e3, 0x3e940a94, 0xbd364a45, 0x3e43effc, 0xbee51451, 0xbe1b7ec2, 0x3d4b975c, 0xbcd216cd, 0x3daddb6e, 0xbe847a9d, 0x3de2743c, 0x3e9dd9eb, 0x3d0858e4, 0x3e67e61f, 0x3e50f5a3, 0x3e961729, 0xbe3da436, 0x3e86a3ee, 0xbe6d031f, 0x3d56bfa9, 0x3d3d8b3a, 0xbcac87f1, 0xbd28980d, 0x3e8cbfb5, 0xbe3fdb7e, 0xbe3f2da0, 0x3ec39389, 0xbdb627b2, 0xbe9c2791, 0x3c88f5d0, 0xbe47a0d1, 0x3d43daec, 0x3c7778a0, 0xbdbadbba, 0xbc88599e, 0x3d0c55ad, 0x3e29dca4, 0xbe776671, 0xbe506ab9, 0x3c3c407e, 0xbd213dfb, 0x3e856028, 0x3d557837, 0x3dd599a1, 0x3e329015, 0x3c03defb, 0x3e6815f5, 0xbca5f0fa, 0x3effa3fe, 0xbd09f77c, 0x3e8d0455, 0xbe087c41, 0xbd5beff2, 0x3d17657c, 0xbe354108, 0x3e172271, 0x3eeba551, 0x3e97c57d, 0x3ebcd050, 0xbc9bd7e2, 0xbe8a0f29, 0x3e066088, 0xbe96dc8b, 0xbe4bb60c, 0xbedfa9b6, 0xbe71ac09, 0x3ea1ce33, 0x3e32bf8c, 0xbda91e1a, 0xbe1deb1a, 0x3e130362, 0x3e996275, 0x3e85a03b, 0xbe060d28, 0xbe87eb4f, 0xbeb2dd8a, 0xbf19d3d9, 0xbe3f8d4a, 0xbf1f06c4, 0xbe430a8e, 0xbe858ac2, 0xbdc3f1f9, 0xbe465de5, 0x3e74c7fd, 0x3f0e7385, 0x3eb62daf, 0xbe8ef1a5, 0xbe56bf6f, 0xbe5ad441, 0x3ea5e6f3, 0x3e17b66a, 0x3e473fa8, 0x3e65bec4, 0x3ec2b116, 0x3ef59ed5, 0x3eb402a6, 0xbe0c9f36, 0x3d73a426, 0xbd2a5e05, 0xbeffe57c, 0xbf4663af, 0xbec7c766, 0x3e138b4a, 0xbe45fb90, 0x3e82af0c, 0x3eb81b87, 0x3f32610c, 0x3e877090, 0xbe76c462, 0xbee1287f, 0xbecdcc53, 0xbd9c01c7, 0xbea2c992, 0xbe90d65e, 0x3e19272e, 0x3f1f1eff, 0x3e9c8f2b, 0x3e24c99b, 0xbe23b419, 0xbe9e7025, 0xbd413ec5, 0xbea01c85, 0xbec7dfbd, 0xbf308a94, 0x3e137ec6, 0xbd803900, 0xbcbf6f52, 0xbe3179c4, 0xbdc7aec0, 0x3de35789, 0xbb85f6c0, 0xbe92d8a9, 0xbd8b0c27, 0xbe8b2dd0, 0xbedd467e, 0xbee98252, 0x3e742705, 0xbca6a03b, 0x3e9efa4a, 0x3eb63df2, 0x3e85a73c, 0xbe414e8e, 0xbe914fda, 0x3eafd15c, 0x3e2916dc, 0x3e1c2693, 0x3ccd390f, 0x3e7c568b, 0x3c64eb30, 0xbf1b0c9a, 0xbd41efa3, 0xbe4dfade, 0x3e16dd59, 0x3e93483d, 0xbed10ae9, 0xbdbfd158, 0x3da044f6, 0xbe1be224, 0x3d9cc724, 0x3e931f2c, 0xbe045af6, 0x3de1bf83, 0xbddd2f8c, 0xbe92489d, 0x3e795390, 0xbc9fe323, 0xbcd71c43, 0xbd99b5dd, 0xbcdacf9d, 0xbddf8fdc, 0x3e129886, 0xbe34e579, 0x3d3fdf08, 0x3c6b1c7e, 0x3da43b87, 0x3c8dae04, 0xbe42f910, 0xbc585244, 0x3e023813, 0xbd9b1eca, 0x3eb81d5d, 0x3e7f76a9, 0x3c60051f, 0x3ebec221, 0xbe70110c, 0xbe6619fe, 0xbc727d22, 0xbd7a1bef, 0xbe9a70c3, 0xbc761b22, 0xbe11cdb7, 0x3e4deaf5, 0x3e99ee02, 0x3ebd386f, 0x3d273762, 0xbea8450f, 0x3e4e757f, 0x3e387772, 0x3ea016bb, 0xbd21e9bd, 0x3d8814e0, 0xbd937531, 0xbdfe2e01, 0xbe760b5e, 0xbd926c40, 0x3dd3050b, 0xbddedfb9, 0x3e3879d6, 0x3cf5d0a6, 0xbdaf01cc, 0xbe54d797, 0xbc41ba83, 0x3e852114, 0x3ea13e89, 0x3e830c34, 0x3be295f5, 0x3deacd57, 0xbd195120, 0x3e591147, 0xbe0c188c, 0x3c99f5f9, 0xbed8bf37, 0xbeb7086c, 0x3d851346, 0x3ea8b817, 0x3e09188c, 0x3ebc69f8, 0x3ea9a2a3, 0xbe830530, 0x3de68025, 0xbe06e7ef, 0xbd2ecfa6, 0xbc336d9d, 0xbe80fb50, 0x3e62dd76, 0x3dea279c, 0xbe71a872, 0x3debf61d, 0x3e953a0c, 0x3e1fd8f2, 0x3dbecc83, 0xbe1d6d89, 0xbe81c145, 0xbe79b57d, 0x3e0dee29, 0xbd8193a1, 0xbee0e154, 0xbe870454, 0x3ca0287a, 0x3e0707fa, 0xbe750b03, 0xbd39e25a, 0x3e74e2b0, 0xbdd42e0e, 0x3dd6419b, 0xbd551381, 0xbde7736f, 0x3e843f66, 0xbb25df10, 0x3e39e6c8, 0x3e9eeebf, 0x3eba61c4, 0x3e3545cf, 0x3e7e80c7, 0x3d8ca4fd, 0x3eb38ae0, 0x3cfba6c4, 0xbf0535d9, 0xbf74e640, 0x3d9077c8, 0x3e25705c, 0xbe3971f7, 0x3e49dff9, 0x3d8d02fc, 0x3f024479, 0xbc35f5d7, 0x3e074551, 0xbe9e525f, 0xbea53fdc, 0xbc30f86c, 0xbe6d11ed, 0xbd4d5534, 0x3e22f604, 0xbd9b7474, 0x3e1341d1, 0xbd5a4c4c, 0xbd5232f9, 0xbdbad05d, 0x3de3df4a, 0x3edc0026, 0xbef0fc49, 0xbe0e08bb, 0x3f027464, 0x3dec0f47, 0xbd0924fb, 0xbcd1cdd5, 0x3e95d0c3, 0x3e9854c4, 0x3f2450c1, 0xbd85df6d, 0xbc85b0f6, 0x3d25cee5, 0xbeb7a61a, 0xbe76fb98, 0xbee04335, 0xbe95c162, 0x3ed721e3, 0xbc605f69, 0xbd06ce22, 0x3e5f651a, 0x3d2482a5, 0xbde16c2d, 0x3c0e41af, 0xbdc5fbcd, 0xbe817d40, 0xbf6364b0, 0x3e7c5069, 0xbe95623f, 0xbea7cc13, 0x3e847b7e, 0x3e45d6c6, 0x3f121ddb, 0x3e87131d, 0xbdc0fcb0, 0x3b0256b8, 0xbefcd588, 0xbe7a3859, 0xbdd11042, 0x3d1a21d5, 0xbec41159, 0x3e380c3e, 0xbe2ccb97, 0x3e38df5f, 0x3e58d70c, 0x3e38836a, 0x3e47bf52, 0x3e9fa73f, 0x3e56c346, 0xbe0b5edb, 0xbefd79eb, 0x3e856a6f, 0x3e69cf3f, 0xbde14e26, 0xbec073b4, 0xbe9a119f, 0x3e47490a, 0x3e8f4ee1, 0x3e760496, 0x3d1602ed, 0xbe1ee809, 0x3e99cffb, 0x3cf189aa, 0xbecbaa1e, 0xbe9886a4, 0xbea0cff6, 0x3e074743, 0x3dd1d1c1, 0x3cd75768, 0x3d1a8ca8, 0x3e670be2, 0x3eb4b501, 0x3eda623e, 0xbcd0cea5, 0xbc05d47f, 0xbce2cf5e, 0xbd96a8f6, 0xbe99c175, 0x3de6dd64, 0xbe135589, 0x3e6b1ca5, 0x3e35357c, 0xbe1aaa05, 0xbe5d736c, 0x3d8fcc28, 0x3e6e03fa, 0xbe7ec5cf, 0xbe5cdba4, 0xbe00d765, 0xbcca36d9, 0xbd38bef0, 0x3eb9c8aa, 0x3e811964, 0x3ea9ac0d, 0xbd830836, 0x3e7e2da2, 0x3e571a64, 0x3e6ce8ea, 0x3e95db2e, 0x3c5a4bc9, 0x3e890ae8, 0x3ed3806a, 0xbd0dc28d, 0x3e460d42, 0xbe9d928b, 0xbda059c1, 0xbe6476cf, 0x3dfc1fa1, 0xbe591ca5, 0x3e3fda46, 0xbe3112b0, 0x3de1bc1f, 0x3e96ae18, 0xbd3e2a18, 0xbe042e32, 0xbe3a5f41, 0xbd374d87, 0x3e78b4b9, 0x3dd48e71, 0xbd8e60a2, 0x3e9df752, 0xbe1beb8c, 0xbeba296a, 0x3e5ffcdf, 0xbea3a0cb, 0x3e58671a, 0xbe175102, 0xbd3bd411, 0xbe0fce9b, 0x3eb50855, 0x3ec5d8d2, 0x3de8ee24, 0x3bbf0158, 0xbd5463dc, 0xbc118261, 0x3da48581, 0xbe14a1a8, 0xbefae2b8, 0xbe423e91, 0xbed27abc, 0x3e5ba3db, 0xbe6c50f8, 0xbd5238f7, 0x3eadc88c, 0x3e82ff71, 0xbd823fc2, 0xbe93fa1f, 0x3dcb0a0a, 0xbc605659, 0xbd4ec705, 0x3e3ca4f8, 0x3ebac992, 0xbea3c7a8, 0xbe40733e, 0x3dcd3b75, 0x3ecca964, 0xbd48d9ff, 0xbd8fc505, 0xbdf292b7, 0x3cd4d9ab, 0x3e66e056, 0xbe1c5e43, 0xbe0894dd, 0xbe720b45, 0xbe510d48, 0x3eeb6f15, 0x3e6f297d, 0xbf0e5f7f, 0xbe1b8673, 0x3e9b6255, 0x3f04859e, 0xbe72a304, 0x3d4670cf, 0xbe5d5f89, 0xbcb61ef9, 0x3e66b5cf, 0x3c0cef23, 0xbd09b95a, 0x3e2aeb5e, 0x3e00371e, 0x3dacf8f6, 0xbeab25fb, 0xbe6eaadc, 0x3e80e239, 0x3e417afa, 0xbe66e83b, 0x3e46d657, 0xbe8673fc, 0xbe6fa41d, 0xbce2c06a, 0x3c192641, 0xbc7d2667, 0x3e823b0c, 0xbe964fe2, 0xbe5aca9e, 0xbe77a43f};
union data attn_hidden_weight_data = {.intval = (uint32_t *) attn_hidden_weight};
const float32_t attn_hidden_bias[1 * 32] = {0x3d709383, 0xbd1983ad, 0x3d2386c2, 0x3e8558e0, 0x3d8a7137, 0x3d1b7fd5, 0x3e4a7946, 0x3deb8af7, 0x3c8c12af, 0x3d38c82b, 0xbd772c93, 0xbc4172db, 0x3c8c8c07, 0x3db04ff9, 0x3dcf3536, 0xbde6ced8, 0x3e771817, 0xbd74f9ec, 0x3de0fc77, 0x3cb6b59b, 0x3d24c0fc, 0x3d358b52, 0x3c21b7b3, 0x3d8113cf, 0x3e037d67, 0x3de420a0, 0x3d868a09, 0x3d1a134e, 0xbc8b8937, 0x3d96c91a, 0xbc80fd84, 0xbd80d03f};
union data attn_hidden_bias_data = {.intval = (uint32_t *) attn_hidden_bias};
const float32_t pc_hidden1_weight[24 * 32] = {0xbd39185c, 0x3e8ea63c, 0x3d3132b3, 0xbd34afe2, 0x3e1f1701, 0xbce4f499, 0x3ea92e61, 0x3ee06445, 0x3e90fc6b, 0x3e01c98d, 0x3ec2f8f1, 0x3ea81d0e, 0x3d328f06, 0x3e3c3c46, 0xbdb71193, 0xbe0836ae, 0xbe6533b0, 0xbdd2d8b1, 0x3cdd0a86, 0x3dc81b7e, 0x3e93ece1, 0x3e7b722d, 0xbca7c71d, 0xbec5d617, 0xbe3cdf3c, 0xbee1507b, 0xbe91ae71, 0x3ec7e3c7, 0xbd03ffdd, 0x3d35b30b, 0x3eb1a115, 0x3dd9b99d, 0x3e7805c5, 0x3e027de6, 0xbd698062, 0x3bce0fdf, 0x3c5105e1, 0xbd884100, 0xbe0e00d1, 0xbe449a10, 0x3dc378c0, 0x3f03c7c3, 0x3ec24e21, 0x3ec2901d, 0x3e4630fa, 0x3e83a06d, 0x3d33bf70, 0x3e0fba84, 0xbe8eb2f6, 0xbd2351ea, 0xbe85e763, 0xbd83b2ff, 0xbbe6eff0, 0x3ecc8ea5, 0x3e8e11d4, 0x3d5ed137, 0x3d3f3671, 0xbdfdbd78, 0x3e784bf2, 0x3e57e1cb, 0x3e51f5c2, 0xbe407e0e, 0xbe31c011, 0x3e91640b, 0x3dbdc289, 0x3d8478af, 0xbd881335, 0x3e4443cd, 0x3e9d514f, 0xbe3dd617, 0x3e87cf0c, 0x3e72c409, 0xbed432ef, 0x3eb63a32, 0x3e6c7f27, 0xbdd4c875, 0x3e98596b, 0x3e928dba, 0x3dc8a70f, 0x3e009f07, 0x3cf35056, 0xbd7ba6e5, 0xbe2c1c02, 0x3e6bc524, 0x3ea6f4c4, 0xbe5b0b6a, 0x3e0a8721, 0x3e3fa53e, 0x3e3ac37c, 0xbe8edf95, 0xbeac23f1, 0xbe1bfcfd, 0xbe4a87e0, 0xbeb543f8, 0xbf0b087a, 0xbe2291f1, 0xbc835130, 0x3d565f6b, 0x3e91251d, 0x3e53ceb5, 0x3e0e0817, 0xbe1f2001, 0x3e84cd1d, 0x3e26b4fe, 0x3e699c3d, 0xbd73ff33, 0x37fc664a, 0x3eb28e06, 0xbe69e514, 0x3b9af023, 0x3d955048, 0x3ea021ef, 0x3db1ddf9, 0xbcc5eeff, 0x3e674d76, 0x3e9317b2, 0xbc8a37d1, 0xbe3b32e4, 0x3e8a1fe3, 0xbe95f3e7, 0x3cb354b4, 0x3e2300f2, 0x3e3f862c, 0x3e874556, 0xbd070bbf, 0x3eba6b57, 0xbddc40aa, 0xbd62c5b8, 0xbd8cc78a, 0x3dc89821, 0xbe0f1a41, 0x3dfbc627, 0xbd187a37, 0x3e30d932, 0x3de6c0ac, 0xbe10c9e8, 0x3e424710, 0x3ed25866, 0xbbe68848, 0x3e8522cf, 0x3dbd9551, 0x3d9b6ff9, 0xbe41342d, 0xbdcfa4cb, 0x3dbee5c8, 0x3eaecb09, 0x3e26e471, 0x3e12c6c3, 0x3ed53851, 0x3e7ccc1e, 0xbe198de8, 0x3e1d7722, 0xbe02c30e, 0xbddc59b7, 0xbe2b048c, 0x3d30d58f, 0x3e853bd6, 0xbe1dc39f, 0xbe96d4ff, 0xbcad88d1, 0xbccc9aa0, 0xbca590d9, 0xbdf754d3, 0x3d8f0095, 0x3ca4e1c6, 0x3e69f307, 0x3e1e3ce9, 0x3d91c628, 0xbe2fc674, 0x3eacd86d, 0xbe614a83, 0xbeba39ea, 0x3da200be, 0x3eaf66ab, 0xbd41f965, 0xbe1a0603, 0xbefc1e1b, 0xbed145d4, 0xbe879aaa, 0xbeaa0cc6, 0x3e58807b, 0x3e7faf81, 0x3ee86fe1, 0x3ebb1027, 0x3e2c4cc6, 0xbeaf657e, 0xbd77d5e0, 0xbd4c72cf, 0x3daf71e0, 0xbf2aebbb, 0xbed5b3c0, 0x3f420db2, 0x3e777d95, 0xbeb183ad, 0xbca2a83b, 0x3d79f6ae, 0x3dedc153, 0x3dda1e2d, 0xbe028cef, 0xbe9929b4, 0xbe76185d, 0x3e6e6fb1, 0xbdc53cbd, 0xbe780b0b, 0x3dc8fd80, 0xbc77ad08, 0x3be277b2, 0x3d76882b, 0xbeb8a39d, 0xbd804063, 0xbe2291c6, 0x3c84150c, 0x3ca53750, 0x3e939ed3, 0x3e8edf11, 0xbeb039d2, 0x3d6fb554, 0x3e1e0133, 0x3e6b3ad4, 0xbde5c4ae, 0x3e9b186a, 0x3ea2e956, 0x3e6861f3, 0xbde7bff7, 0xbcc9f03c, 0x3e895209, 0x3e335ec3, 0x3e3a5a51, 0xbe4814dd, 0x3d6c19fc, 0x3e9a31e0, 0x3d7af014, 0x3d2ec58d, 0x3d686d0d, 0x3e6552dd, 0x3e9a9962, 0x3e80f47f, 0x3e8607c5, 0x3d6c7f10, 0xbea2ef93, 0x3df6827a, 0x3de10b9b, 0x3e008487, 0xbc72c53d, 0xbd650bbe, 0xbd7c9dcb, 0x3e5c93ed, 0x3de0b6b5, 0x3ebdadb2, 0xbcbeb18d, 0xbe7dc94f, 0x3e8798bf, 0x3ea223cc, 0x3e1f52c9, 0x3e295693, 0x3e9c0284, 0xbe606ab7, 0xbdec8d63, 0xbbd91b0e, 0x3d1fda94, 0x3eba79f9, 0xbe2d5f86, 0x3dffa4a4, 0x3e93ff60, 0x3dd8743e, 0x3e7415ed, 0x3e96bca6, 0xbdeafc30, 0x3da27779, 0xbc2eb730, 0x3e69ec57, 0x3ceebd88, 0x3c054d8a, 0x3ee6de7f, 0x3d80c43e, 0x3eb61928, 0xbe16eb49, 0x3cb9218f, 0xbd829925, 0x3e66cac3, 0xbd837cd9, 0xbdacac71, 0xbd8478e5, 0x3e9dbf92, 0x3ddc6a16, 0x3e35cd9e, 0x3c42c404, 0xbe9c2e9e, 0xbe243ad7, 0x3e1ec9e2, 0x3e93d58f, 0x3e4cc78d, 0xbe1b3a40, 0xbe97ff95, 0xbe941748, 0xbe40789f, 0x3e9761ce, 0xbdd61aaf, 0x3e2adfc1, 0x3e830ef3, 0xbd50e1bd, 0xbe1a0a7b, 0x3dc4d345, 0xbe017826, 0x3d4642c0, 0x3e48c777, 0x3e879b8b, 0xbc973f5a, 0xbda3cf9a, 0x3a749de2, 0x3e69a252, 0xbdf0e9c3, 0x3c23650f, 0x3ee89ee8, 0x3eb3860d, 0xbe5895c4, 0x3ea7545d, 0x3dbc01bd, 0x3d3c99b9, 0xbd497936, 0xbdf3ee2c, 0x3e959c0d, 0x3eb61d22, 0xbe922312, 0xbde9d540, 0x3ed65d9f, 0x3ebb86c1, 0xbc338a88, 0xbdbc0eb6, 0x3e8cb7c0, 0x3e3a241b, 0xbc931ba1, 0x3d99f1c0, 0x3e9b9883, 0x3ea2a499, 0x3eadfd40, 0x3e4e722b, 0x3e0b0058, 0x3b988a44, 0x3d7f0364, 0xbd8510e5, 0x3de4f1a4, 0x3e9aa9b3, 0x3f075c4c, 0x3ed835da, 0xbde78d91, 0x3ee0d066, 0xbdfa6c2f, 0x3eba4e56, 0x3dadc7ca, 0xbd86f873, 0xbe090312, 0xbe86af5f, 0x3ec30ff8, 0xbe4f52e5, 0x3db0acf4, 0xbe51227e, 0xbda3396a, 0xbd857628, 0xbe3e8c9b, 0x3e57d7c7, 0xbdf9f160, 0x3dfafe26, 0xba41ff73, 0x3da191c0, 0xbe34c64a, 0xbe3e89ae, 0x3da0bbb9, 0x3da85020, 0xbe01eb73, 0xbc836eae, 0x3eaeef10, 0x3e95b46c, 0xbdaf26b8, 0xbd9ba6b0, 0xbe543c9e, 0x3eb23fee, 0x3eb06cfa, 0x3d20ef84, 0x3e432b77, 0x3e8081d4, 0x3e019c26, 0x3eb4208f, 0xbd64da9c, 0xbe8e61c9, 0x3e33ac0e, 0x3d8b00e5, 0x3e019185, 0x3e69b684, 0x3dac7a5c, 0xbe3ddbeb, 0xbdb2abf6, 0xbdbe9b43, 0xbe362cd1, 0x3e80c15c, 0x3e264578, 0x3e661ee7, 0x3e1fe1f9, 0xbd6ed732, 0xbe81c72a, 0xbe431e5f, 0x3de5e958, 0x3cb04ee0, 0xbeb34df3, 0xbec283ca, 0xbbb92a6a, 0xbd8c047a, 0xbe3fbd07, 0xbdd2df52, 0xbf08fbd6, 0x3c1ef35f, 0x3e0a55d5, 0x3e0274de, 0xbdd237d7, 0x3e4cbaa7, 0x3f16533a, 0x3e39a40a, 0x3f122431, 0x3f146a50, 0xbd9b7866, 0xbebde5dc, 0xbeb8b26d, 0xbe4cf9ec, 0xbed35cdb, 0xbe2d88e2, 0x3badc1d6, 0x3ec4a7e0, 0xbd131d67, 0x3e1ae05f, 0x3f6d607d, 0x3f5c580e, 0xbf03853b, 0x3eccb517, 0xbe2ca9cb, 0xbbe7f62a, 0x3c1b4a14, 0xbdfb0022, 0x3c96601c, 0x3ea3a979, 0x3ee3d8d0, 0x3e632f33, 0x3e0dacb2, 0x3ec65d26, 0x3eb39592, 0xbe431392, 0x3da05043, 0xbe9022eb, 0xbe427bbf, 0xbb8f694c, 0xbe56799c, 0x3d9c8852, 0x3eb95654, 0x3e7be8d1, 0x3e7071ef, 0x3e0249fc, 0xbd8e2c51, 0xbef68bbf, 0xbefe1360, 0x3e65d8c3, 0x3d9c8547, 0x3deb7f2f, 0x3dc9974a, 0x3e6d981c, 0x3eeb91c1, 0x3e7eafef, 0x3e561715, 0x3e25542f, 0xbf06d984, 0xbe41b48e, 0xbe1de1f7, 0xbde7e13c, 0x3ce00b7b, 0x3e25c7de, 0x3e46afdf, 0x3ef1c4a6, 0x3e263b52, 0x3ef93c84, 0x3e551f43, 0x3e0d17a8, 0xbee2f4cb, 0x3c439633, 0xbee16046, 0x3dd06dfa, 0x3e51be8e, 0x3ed40471, 0x3d9cc2ee, 0x3eab95b4, 0xbda6895e, 0x3e55e75a, 0x3ef4c8bb, 0xbd835a24, 0xbe461e70, 0xbe9e7fda, 0xbdc5adc1, 0x3c880ed0, 0xbea74187, 0x3e8a4590, 0x3e19e00c, 0xbdd9e841, 0x3eedeb01, 0xbdb83e75, 0x3e9fcf1f, 0x3ee8c296, 0x3e5bd758, 0xbe8123ff, 0x3dc6c7df, 0x3e43b8fb, 0xbe4bf533, 0xbe5927c6, 0xbddaa2c5, 0xbe156d08, 0xbe479244, 0x3e0d1334, 0x3cf416ec, 0xbe94471a, 0xbdf4128c, 0x3d8de547, 0x3e6c1935, 0x3e361932, 0xbc7432ad, 0xbc50c91c, 0xbe70e332, 0xbe31f70c, 0xbe00204b, 0xbc8cdaf2, 0x3ca15daf, 0xbe2d528d, 0xbe8c282e, 0xbda6ad1c, 0xbf20b2fe, 0xbe58db5d, 0x3e9e3fb1, 0x3dd598a2, 0xbe191d86, 0x3df022ce, 0x3f426406, 0x3e89e136, 0x3e9eba92, 0x3e7eded0, 0xbdfcacb4, 0xbe7d9148, 0xbee54863, 0x3dca371f, 0xbee15a17, 0x3e1224c9, 0x3f03321b, 0x3e97f09f, 0xbc536fe8, 0x3f026063, 0x3f1c1722, 0x3f5af810, 0xbf02460f, 0x3e250342, 0xbaae15a9, 0xbe11e542, 0x3eda09d2, 0xbce9d677, 0x3e1df549, 0xbd6030f8, 0x3ea75f59, 0x3e6f6f3c, 0x3d497b17, 0x3eb2e866, 0x3e987110, 0x3e2a882f, 0x3e059de9, 0x3e39e015, 0xbe9183b5, 0xbde5c566, 0xbde55e1f, 0x3ddff624, 0xbc6ef3e1, 0x3e16d77a, 0x3e88af46, 0x3ea58227, 0xbebfd157, 0xbcda63f6, 0x3e49d0f8, 0x3d1bbcb8, 0x3e1f192d, 0x3e8d7798, 0xbdd25916, 0x3e91d340, 0xbded679f, 0xbd00d6d2, 0x3ec5ad5e, 0x3e96dbe9, 0x3e896db7, 0x3ea0aa0d, 0x3d878bce, 0xbe5c9b8b, 0x3e8de061, 0xbdbb82ec, 0x3e899f28, 0x3e1aa501, 0xbc96d3d6, 0x3da7f215, 0x3d11f89e, 0x3d4c5efb, 0xbe9a2fff, 0xbe8e5cd4, 0x3ee03de8, 0x3e108a73, 0x3df4b0ed, 0x3d369f2c, 0xbb3c0474, 0x3db27fd7, 0x3c4642d8, 0xbe55a3e5, 0xbef4a7a2, 0x3cfaa04f, 0x3e173510, 0x3ed1ab59, 0x3e979a3a, 0x3e664a2d, 0x3ef3add0, 0x3e3f3a23, 0xbeb45b6d, 0xbdb790ae, 0xbf015e94, 0xbea1ae2c, 0xbf0e0a7f, 0xbf141b71, 0x3e95ce50, 0xbdde2ef7, 0xbe83d6ca, 0x3e9ec76a, 0xbd25cece, 0x3e8f81cd, 0x3e267be4, 0x3e8c89ef, 0x3e910d0b, 0xbc80b7b6, 0x3e1b5d78, 0x3df69af7, 0x3eb7018a, 0x3e8f7cdc, 0xbe858d1c, 0x3e7d5ed9, 0x3b5f7f2e, 0x3c5d3745, 0xbe8d1c31, 0xbc862ccc, 0xbd8b967b, 0x3eae2ff3, 0x3e482ee8, 0x3e571395, 0xbee2545b, 0xbe277ea6, 0xbe796612, 0xbd9beed4, 0x3e7088ba, 0x3e8bda8a, 0x3e9214df, 0xbe0a1a95, 0x3dba9189, 0x3e6b285f, 0x3d87b1fd, 0x3e4edbf2, 0x3e2917c4, 0x3c7b8907, 0xbe106f65, 0xbe0d0700, 0x3d1d9cf4, 0x3e87c302, 0x3ec88fdb, 0x3e0c5bf9, 0xbe5acfd5, 0x3e8670c3, 0x3eacfd63, 0x3e980bc1, 0x3e63f8c0, 0x3e3fb2bf, 0x3d6a5a3c, 0xbea1e75d, 0xbd801548, 0xbe35bcb3, 0x3de5b10a, 0x3d545202, 0xbd810389, 0x3e39a968, 0x3cececa8, 0xbc780801, 0xbc11d728, 0xbeac5692, 0x3e68fa5f, 0x3e1b9983, 0x3e8b78ad, 0x3d2b359b, 0xbd99ac7d, 0x3ed010b9, 0x3ed0a129, 0x3dc6f081, 0xbe3e5d94, 0x3d07a6fb, 0x3d14b2ff, 0xbe4e36ab, 0x3e1edd43, 0x3e36b0bb, 0x3e15d64e, 0x3ebdead6, 0x3c1c6253, 0x3da2363b, 0x3eb3ecf5, 0x3e8a556e, 0x3e41728f, 0x3e6aa573, 0xbd09b936, 0x3c773bc6, 0xbdccda68, 0x3dc1f00b, 0xbe81d90e, 0xbc08c25b, 0x3dfe58c3, 0x3e77d3b2, 0x3e7188d0, 0xbe4f056e, 0xbd91c55f, 0x3ec96098, 0xbdc56857, 0x3de15f86, 0xbc5e2efc, 0x3e315e40, 0x3e886d48, 0xbd2e574d, 0x3ec9bed3, 0xbe20caf9, 0xbdacdad7, 0x3da1159d, 0x3eb2835d, 0xbe39f3c0, 0x3db27867, 0x3eca77f6, 0x3e833496, 0x3e0e909b, 0x3e01661a, 0x3e75cf60, 0x3e13a0cd, 0x3d8ebd1b, 0x3e316d36, 0xbbbf4520, 0x3eb20765, 0x3eea5075, 0xbd93cd31, 0xbe31552a, 0x3e171f67, 0x3d90ff5e, 0xbee97d06, 0xbb7053de, 0x3f056f78, 0xbeaf3a37, 0x3c6516b1, 0xbdbbd35a, 0xbe9fae7b, 0x3d10e230, 0x3c3eb285, 0xbd14a99a, 0xbe472609, 0x3f044642, 0x3f088ea9, 0x3eb607da, 0xbe0c4e68, 0xbf0af392, 0xbde5f0ac, 0xbefdbe65, 0xbef28b29, 0xbf2dc597, 0x3f14c148};
union data pc_hidden1_weight_data = {.intval = (uint32_t *) pc_hidden1_weight};
const float32_t pc_hidden1_bias[1 * 32] = {0x3de23e46, 0x3e56bc20, 0x3dcbe2e3, 0x3e1eda69, 0x3dc202bc, 0x3de2c00a, 0x3d539f12, 0x3da5a464, 0xbd20ae84, 0x3d81e043, 0x3ddc065b, 0x3d94ae4a, 0xbbd5b517, 0x3d95de8b, 0x3dd01cc6, 0x3deb39a2, 0xbd8357f1, 0x3e3b70ab, 0x3d471022, 0x3e6f5827, 0x3dbb0347, 0xbd6387b3, 0x3e81c5d0, 0x3d659b76, 0x3dacd111, 0x3dd124c0, 0xbc8e5cb6, 0x3d9a4bf7, 0x3cdd17ff, 0x3db5a04a, 0x3da6e736, 0x3e25581e};
union data pc_hidden1_bias_data = {.intval = (uint32_t *) pc_hidden1_bias};
const float32_t attn_hidden3_weight[32 * 16] = {0xbe329fbd, 0xbe608cb3, 0xbe9aca20, 0x3e8dfb49, 0x3e66e31b, 0xbe4da2da, 0x3f13c39c, 0x3f746b49, 0x3ede0df1, 0x3e96fea9, 0xbe00c8e9, 0xbe1163fd, 0xbe46ae40, 0xbdbc7d89, 0x3e7c1f2a, 0xbf2b12ef, 0x3f28de28, 0x3ed3f8f4, 0x3edeb2e8, 0x3ec57260, 0x3e8b97b9, 0x3eb3421d, 0xbea6aa5e, 0x3e117e7f, 0x3f5ff15d, 0x3e96d519, 0xbd9417b2, 0x3decbdc0, 0xbebc056f, 0x3f214bca, 0xbe8ee747, 0x3d821d89, 0x3e0503a2, 0xbe13ab17, 0x3da6f99d, 0x3e8cb009, 0xbe84c280, 0x3e4a1775, 0x3f191769, 0x3f2ccd2c, 0x3eac2e26, 0xbe14d2a2, 0x3d3da5ff, 0xbe177276, 0xbd853160, 0xbd0bef12, 0xbd48e2e4, 0xbf2c4b15, 0x3d9facbd, 0x3e4c2cc5, 0x3ed8b4df, 0xbc59af40, 0xbebadff5, 0x3e9a84ce, 0xbf3cae16, 0x3e97adf8, 0x3eba1ea0, 0x3e3e65a7, 0x3ea3f65d, 0x3e0d9bae, 0xbe88d287, 0x3f1e223d, 0xbe8f826f, 0x3ca42894, 0xbe95ddd0, 0xbe867a74, 0x3e74572e, 0x3d410ff2, 0x3d77f78a, 0x3d495a1d, 0x3f47f27f, 0x3f969779, 0xbdfe2d21, 0xbdfa1f8d, 0xbedcccb9, 0xbd9fb189, 0xbd1b071a, 0xbda8543c, 0x3ed59a77, 0xbf3a6cdb, 0x3f760ba2, 0xbe88c562, 0x3ef10f04, 0xbdc98dc2, 0x3e48dd74, 0x3e92a628, 0xbc28ced9, 0x3de4c9a0, 0x3f61e2a0, 0x3f13f307, 0x3e82abab, 0xbd9418c1, 0x3ec0a4ba, 0x3f095b69, 0xbe970222, 0x3eb20056, 0x3d984e0f, 0x3e947a93, 0xbe507cd6, 0x3edce106, 0x3e209817, 0x3e531f02, 0x3de7b29b, 0x3f12775f, 0xbe2b3b5d, 0x3f0e7e52, 0xbd905630, 0xbc90d8e0, 0x3ec3639d, 0x3eae053e, 0x3e8df0e7, 0x3e4468e9, 0x3e047222, 0x3d95282b, 0x3e5bb433, 0x3dbb2518, 0x3ec1d1a0, 0x3e78d266, 0xbd34ea43, 0x3e29de6f, 0x3c632966, 0x3eb8558b, 0x3f054de8, 0x3ed0ae60, 0x3e669ac6, 0x3ee2b4c7, 0xbd2bec1f, 0xbe813a0c, 0xbde510d7, 0xbeaa2d61, 0xbb43ae57, 0x3f1bb830, 0x3efb2c13, 0x3eb4e7b4, 0x3ee5023c, 0x3f87bf11, 0xbeaafa45, 0x3ec7915a, 0xbd7421a7, 0x3da93970, 0x3d964c33, 0x3ef9ddad, 0x3f29d018, 0x3e26ddef, 0x3f0213b7, 0x3e58624b, 0x3eb9b548, 0x3e43fbd3, 0x3ed1128f, 0x3cb8000d, 0x3d78410c, 0xbc1baff6, 0x3f0887d3, 0x3e8536d3, 0x3efe7cf4, 0x3e7f5fba, 0x3e24a68d, 0x3e8eb50e, 0xbe0e691d, 0xbdaede36, 0x3e2021e1, 0xbf045797, 0x3e5b45e1, 0x3f022ee1, 0xbe314973, 0xbd8bfd20, 0x3f124d7b, 0x3f64943e, 0xbe1e6ff6, 0x3e670dc5, 0xbe2ebe4c, 0x3e3d9c32, 0xbe791bff, 0x3dde9587, 0x3ee3a4ff, 0xbf1e6267, 0x3e9596ee, 0x3dae23e5, 0x3eb633fa, 0x3dff8051, 0x3dd1b5ea, 0x3df70386, 0x3cd840d7, 0xbeb1bf2c, 0xbc916ff1, 0x3f008041, 0x3eacf0e1, 0x3e92d4d2, 0x3ec8552f, 0x3e59a985, 0xbe7b2cab, 0xbe8242d4, 0x3e7a50c3, 0x3e9ed888, 0x3e9f2880, 0x3f1c267c, 0x3ef41b36, 0xbe698f8e, 0xbf55065d, 0xbe11fece, 0xbf19179e, 0x3e085e42, 0x3dac7735, 0x3e1b8e81, 0xbcc6c11b, 0x3dd88871, 0x3e5cce12, 0x3f259580, 0xbdceb250, 0xbf081cbc, 0x3d838f98, 0xbe41c9c8, 0x3beb1bbd, 0x3d8756b7, 0x3f7544bb, 0xbe341962, 0x3d2cb76e, 0xbe2b5282, 0xbe76d38d, 0xbc026401, 0xbed444d8, 0x3d94d0df, 0x3f0b978b, 0xbe13ffdb, 0xbe44dfa5, 0xbebb059d, 0xbe8f7c28, 0x3d0893b9, 0x3e6ec7d6, 0x3ea4a0e6, 0x3ef15237, 0x3f98086c, 0xbd4650e3, 0xbd6e58bb, 0xbe966ce2, 0xbdbc5008, 0xbcd86fed, 0x3bcdda19, 0x3d9a1ab6, 0xbf3d06d9, 0x3f5e6ea9, 0x3eb09524, 0xbd7695ad, 0x3e106164, 0x3e6b7f3d, 0x3d9d7181, 0xbe7f7534, 0x3e1287c2, 0x3f509d84, 0x3ef96477, 0x3e6e5037, 0x3e6f3e12, 0x3e247df9, 0x3dd905c4, 0xbe80f531, 0xbea7b604, 0xbdcbd51d, 0x3ded4682, 0xbdedcb59, 0x3f0a79b7, 0x3e5d73bc, 0xbe5bcfbb, 0x3f39efd7, 0x3f16c0e0, 0x3e92fb90, 0x3ca72c63, 0xbda6eae2, 0x3d881fa9, 0xbd9edc57, 0x3ebd5004, 0xbe91327b, 0xbf28f66f, 0x3ed4933b, 0xbe0c7d4b, 0x3eafe696, 0x3e37d815, 0xbdf78159, 0x3e1e14fd, 0xbf286d74, 0x3d6bdd26, 0x3e386c52, 0x3ca1a827, 0xbefbe374, 0xbe4b07a3, 0xbe5d5c45, 0x3f335ee9, 0xbecdb091, 0x3e577913, 0x3f11fba2, 0x3e4063ec, 0x3ecc0745, 0x3ab35833, 0x3d8ff73b, 0x3eca2338, 0xbf802543, 0xbf1c42a4, 0xbea65459, 0xbe1c2f41, 0xbe6fe4f3, 0xbe18ef13, 0x3ecaf417, 0x3e04355b, 0x3ee0469e, 0x3ecee40f, 0xbe855a72, 0xbe37c665, 0xbd72510a, 0x3edcad58, 0x3e810790, 0xbd843e9f, 0x3eefa8d4, 0xbc7e6137, 0x3db2b3e6, 0x3db2fc58, 0x3e451777, 0x3e2e4446, 0xbebcb155, 0x3d38e67c, 0x3e8a054f, 0xbcc35cee, 0x3c491e8a, 0xbd68cfbd, 0x3d9b2b4d, 0x3e499d3c, 0x3ec7c756, 0x3eaa1cbb, 0xbf2b2575, 0xbed52bc6, 0xbe87b841, 0x3e846bd8, 0xbe9ca0f2, 0x3ec3adab, 0x3e29caf9, 0x3db7a3ab, 0x3e824e2e, 0x3d8445b4, 0xbe9d0a56, 0xbebab3ed, 0x3e084985, 0x3e55c22a, 0xbd0d3783, 0x3e4e0fac, 0xbe13e9ef, 0xbdf8b99a, 0xbdff0259, 0xbe214b3f, 0xbe4821d5, 0x3ebe5236, 0xbe8536d7, 0x3e90437d, 0x3ebc2c76, 0xbd9a235b, 0x3ee0c3bf, 0x3e89c21d, 0xbdda50c9, 0xbe4642fa, 0x3d7156ae, 0x3e8d07c0, 0xbeba0b4e, 0xbf48034b, 0x3e9f8f4b, 0x3ea9d99f, 0x3e1adb2f, 0x3e46d573, 0xbd85784e, 0xbc04ce26, 0xbe65166f, 0x3daa1966, 0xbf6b0834, 0xbe8aa738, 0xbec9d05d, 0x3ea8b228, 0x3e8835b7, 0x3ebce312, 0x3efef685, 0xbe566ae0, 0xbeeebdb3, 0x3de050a0, 0x3e37ee99, 0x3eaecd73, 0xbca6ac40, 0x3e098691, 0x3eca1f16, 0x3df44397, 0x3db04e6c, 0x3e25ffa0, 0x3f018744, 0x3e75d514, 0x3da58e22, 0xbd447f0e, 0xbf034061, 0xbf01087a, 0x3d1640fd, 0xbe20b77e, 0xbc10b9f9, 0xbdf6e264, 0x3e74bcec, 0xbd68a960, 0x3eb2fd5e, 0x3fa3c799, 0xbe5d0961, 0xbf4d60ae, 0x3e0c5645, 0xbe1da341, 0x3d4b46da, 0x3d332823, 0x3f90f0df, 0xbed5cd14, 0xbf077364, 0x3ea1856e, 0x3de9875a, 0x3e6a5101, 0x3db2318b, 0xbd8f1349, 0xbe2be662, 0x3e2e3319, 0x3c9d87bd, 0xbf04987f, 0xbd184de4, 0x3d8760cc, 0x3d4874e2, 0x3eb811e9, 0x3f48f87d, 0x3f701ddc, 0xbd43ea0c, 0xbdaf2da1, 0xbdb09ca6, 0x3e97b258, 0x3e0ffb61, 0x3dabcc59, 0x3f0e234d, 0xbf5871c6, 0x3f974f58, 0x3e84aa4f, 0x3edab8bb, 0x3eb90665, 0xbd61488b, 0xbdff00fa, 0xbe9fcc1c, 0x3f20579f, 0x3f1df952, 0x3eba261c, 0x3ebe5552, 0x3da461d6, 0x3ec7f67d, 0x3e8a4037, 0xbe39847c, 0x3caa6f91, 0xbd9203df, 0xbd88e295, 0x3eca5737, 0x3f25d1bf, 0xbdd11023, 0x3ec2f61a, 0xbdeac828, 0x3ea64183, 0xbe226d27, 0x3ed91c67, 0xbdb2e01f, 0x3e086841, 0x3ecefaf9, 0x3e1d9a42, 0x3e1e1234, 0x3e854ac7, 0xbdaf2891, 0xbec59fd6, 0x3cbb68e1, 0xb9a14bdb, 0x3dcbe416, 0xbdfd8023, 0x3ed30353, 0x3d9e7aec, 0xbda86634, 0x3d8e566a, 0x3e839ac5, 0x3edc6001, 0xbdb87408, 0x3e0e970f, 0x3cd9d935, 0xbccb1b03, 0x3daed95a, 0x3d77f5c8, 0xbebb272b, 0x3d0d0dea, 0xbdca6125, 0x3d9d0e17, 0xbac3f593, 0x3f1d751b, 0x3e7ab741, 0xbe6bea5f, 0x3e55e09f, 0xbd90b37a, 0x3bb98a87, 0xbdde6003, 0x3f38b168, 0x3dd159cc, 0x3e4c20a1, 0xbe79f7cd, 0x3ecf406b, 0xbdfde262, 0x3c07ffa8, 0x3e8f9ed0, 0xbe91b08a, 0x3e537e45, 0x3f197381, 0x3f07d13b, 0x3e1a50f2, 0x3d4ffac3, 0xbd1a513a, 0x3e518056, 0xbe8e31a6, 0xbcac7247};
union data attn_hidden3_weight_data = {.intval = (uint32_t *) attn_hidden3_weight};
const float32_t attn_hidden3_bias[1 * 16] = {0x3d7b27ac, 0xbd3697f2, 0x3e0b0a86, 0x3e01e948, 0x3ec54421, 0x3c43d05d, 0x3c1c7c1d, 0x3d08ce6d, 0x3c08e7f3, 0x3dcbac72, 0x3d8efa90, 0x3d47a341, 0xbd2ee8bc, 0x3e2fb7b1, 0x3dc8e2ef, 0x3c79ae5a};
union data attn_hidden3_bias_data = {.intval = (uint32_t *) attn_hidden3_bias};
